<pad>	0
<unk>	0
<bos>	0
<eos>	0
▁a	-1.84537
▁on	-3.35759
▁of	-3.41395
▁the	-3.44389
▁in	-3.51581
▁with	-3.69053
▁and	-3.78339
▁is	-4.14317
▁man	-4.43849
▁to	-4.50829
▁sitting	-4.76454
▁an	-4.82359
▁two	-4.84781
▁at	-4.97638
▁standing	-4.97978
▁people	-4.99088
▁are	-5.01482
▁next	-5.11591
▁white	-5.13764
▁woman	-5.2051
▁street	-5.32088
▁table	-5.32126
▁that	-5.39626
▁holding	-5.4041
▁large	-5.52987
▁it	-5.53161
▁some	-5.53622
▁person	-5.53631
▁down	-5.58991
▁top	-5.62739
▁group	-5.65567
▁up	-5.66458
▁field	-5.69791
▁small	-5.72948
▁tennis	-5.7438
▁near	-5.75492
▁his	-5.75859
▁front	-5.76073
▁black	-5.76519
▁train	-5.80765
▁room	-5.82172
▁plate	-5.82212
▁dog	-5.8349
▁riding	-5.83802
▁red	-5.874
▁by	-5.89203
▁young	-5.89411
▁cat	-5.89933
▁water	-5.93012
▁baseball	-5.9703
▁has	-6.01073
▁while	-6.03989
▁playing	-6.04052
▁walking	-6.04956
▁bathroom	-6.06657
▁sign	-6.08033
▁blue	-6.10655
▁kitchen	-6.13689
▁food	-6.14826
▁grass	-6.16521
▁bus	-6.17626
▁there	-6.184
▁green	-6.19444
▁pizza	-6.2004
▁side	-6.2029
▁parked	-6.20515
▁building	-6.21236
▁other	-6.23121
▁looking	-6.24929
▁bed	-6.24963
▁snow	-6.25911
▁ball	-6.29857
▁beach	-6.30926
▁couple	-6.32176
▁three	-6.32599
▁for	-6.33175
▁boy	-6.35215
▁men	-6.3651
▁toilet	-6.3803
▁clock	-6.38429
▁city	-6.39706
▁road	-6.39827
▁flying	-6.41071
▁out	-6.42684
▁wearing	-6.435
▁player	-6.44418
▁her	-6.4445
▁skateboard	-6.45057
▁over	-6.46942
▁game	-6.47029
▁several	-6.48168
▁laying	-6.49632
▁from	-6.49889
▁girl	-6.50046
▁sits	-6.50812
▁wooden	-6.53389
▁picture	-6.53912
▁bench	-6.54228
▁bear	-6.55748
▁area	-6.56248
▁laptop	-6.56715
▁one	-6.56799
▁their	-6.57425
▁through	-6.57558
▁around	-6.59204
▁eating	-6.59574
▁brown	-6.60143
▁horse	-6.6023
▁yellow	-6.60292
▁cake	-6.60878
▁its	-6.61066
▁computer	-6.6225
▁phone	-6.6295
▁frisbee	-6.64054
▁sink	-6.64987
▁board	-6.65301
▁giraffe	-6.67027
▁outside	-6.67561
▁as	-6.68961
▁living	-6.69955
▁air	-6.69969
▁truck	-6.71445
▁window	-6.7276
▁desk	-6.73282
▁close	-6.74866
▁motorcycle	-6.7537
▁tree	-6.76402
▁trees	-6.77017
▁covered	-6.77208
▁umbrella	-6.77223
▁open	-6.77592
▁each	-6.78408
▁car	-6.78467
▁wall	-6.78616
▁park	-6.7893
▁many	-6.8
▁elephant	-6.80836
▁very	-6.82203
▁old	-6.8225
▁this	-6.82498
▁behind	-6.8284
▁filled	-6.85715
▁under	-6.85747
▁little	-6.85828
▁stop	-6.86795
▁court	-6.87805
▁fire	-6.88676
▁into	-6.92102
▁together	-6.92136
▁sky	-6.92204
▁kite	-6.93895
▁surfboard	-6.95844
▁child	-6.96699
▁skis	-6.97309
▁background	-6.97851
▁inside	-6.99016
▁boat	-7.00938
▁bat	-7.01069
▁back	-7.01256
▁big	-7.01744
▁bowl	-7.01744
▁sheep	-7.02329
▁stands	-7.02443
▁chair	-7.02594
▁view	-7.03146
▁photo	-7.03242
▁bunch	-7.03893
▁couch	-7.04085
▁light	-7.04317
▁ocean	-7.04995
▁bird	-7.05131
▁cell	-7.05991
▁glass	-7.06089
▁traffic	-7.07574
▁shirt	-7.08094
▁airplane	-7.0898
▁mirror	-7.09629
▁hydrant	-7.10037
▁fence	-7.10467
▁zebra	-7.10982
▁teddy	-7.11375
▁counter	-7.11479
▁hand	-7.11499
▁sandwich	-7.12082
▁women	-7.1227
▁orange	-7.13067
▁another	-7.13999
▁sidewalk	-7.14339
▁different	-7.15068
▁plane	-7.15606
▁wave	-7.163
▁giraffes	-7.17241
▁floor	-7.17681
▁tall	-7.17968
▁lot	-7.18013
▁flowers	-7.18323
▁tracks	-7.18947
▁horses	-7.18969
▁cars	-7.19215
▁stand	-7.19619
▁vase	-7.20161
▁parking	-7.20274
▁tower	-7.21895
▁racket	-7.23099
▁baby	-7.24294
▁ground	-7.2498
▁vegetables	-7.25075
▁tie	-7.2536
▁zebras	-7.25647
▁being	-7.2627
▁grassy	-7.26414
▁elephants	-7.27358
▁off	-7.27967
▁bananas	-7.28876
▁day	-7.30293
▁middle	-7.30644
▁along	-7.31527
▁full	-7.31705
▁ready	-7.33757
▁station	-7.34615
▁dirt	-7.34982
▁hill	-7.35508
▁image	-7.3564
▁taking	-7.36728
▁sit	-7.37613
▁signs	-7.37748
▁bike	-7.3856
▁four	-7.38778
▁driving	-7.39929
▁stuffed	-7.40482
▁slope	-7.40787
▁head	-7.41373
▁above	-7.43179
▁piece	-7.44065
▁wine	-7.44613
▁cows	-7.4496
▁skiing	-7.45308
▁across	-7.4557
▁beside	-7.45716
▁long	-7.45804
▁grazing	-7.46185
▁broccoli	-7.46302
▁luggage	-7.46714
▁snowy	-7.48741
▁skate	-7.49466
▁wii	-7.50318
▁them	-7.50471
▁refrigerator	-7.51302
▁during	-7.51549
▁hanging	-7.5189
▁hat	-7.51921
▁glasses	-7.51952
▁holds	-7.52639
▁hot	-7.53867
▁camera	-7.53899
▁pink	-7.54121
▁doing	-7.54184
▁mountain	-7.54311
▁fruit	-7.55174
▁suit	-7.55464
▁buildings	-7.55528
▁display	-7.55528
▁herd	-7.56045
▁double	-7.56825
▁children	-7.57349
▁ski	-7.5748
▁cow	-7.58206
▁pole	-7.58371
▁corner	-7.59605
▁going	-7.60177
▁keyboard	-7.60414
▁empty	-7.60888
▁watching	-7.61093
▁cutting	-7.61263
▁kites	-7.61365
▁oven	-7.61536
▁pair	-7.62188
▁umbrellas	-7.62326
▁looks	-7.62741
▁track	-7.62741
▁stove	-7.63053
▁trick	-7.63053
▁dogs	-7.6361
▁jumping	-7.63645
▁smiling	-7.63645
▁chairs	-7.6389
▁talking	-7.65017
▁television	-7.65978
▁boats	-7.66086
▁tv	-7.66265
▁door	-7.66408
▁posing	-7.66552
▁soccer	-7.66877
▁swinging	-7.67674
▁box	-7.67746
▁crowd	-7.67892
▁colorful	-7.68221
▁traveling	-7.68294
▁airport	-7.68367
▁video	-7.69546
▁topped	-7.6988
▁animals	-7.70365
▁various	-7.70627
▁surf	-7.71228
▁getting	-7.71682
▁birds	-7.72365
▁using	-7.72404
▁plates	-7.73246
▁lady	-7.73323
▁who	-7.734
▁hit	-7.74174
▁set	-7.7468
▁body	-7.74758
▁against	-7.75227
▁all	-7.76689
▁paper	-7.76889
▁guy	-7.77972
▁carrying	-7.78376
▁wood	-7.78741
▁lots	-7.79393
▁banana	-7.79885
▁brick	-7.80173
▁coffee	-7.80379
▁motorcycles	-7.8071
▁river	-7.81626
▁cheese	-7.81668
▁bears	-7.81877
▁cup	-7.82087
▁bedroom	-7.82256
▁something	-7.8272
▁waiting	-7.82931
▁lights	-7.83016
▁night	-7.83186
▁be	-7.83611
▁restaurant	-7.8477
▁house	-7.85073
▁walk	-7.85159
▁players	-7.85246
▁shower	-7.86555
▁meat	-7.86687
▁remote	-7.87571
▁runway	-7.87749
▁skateboarder	-7.87927
▁home	-7.88105
▁metal	-7.88463
▁face	-7.88777
▁bicycle	-7.88912
▁decker	-7.88912
▁snowboard	-7.89589
▁skier	-7.8977
▁about	-7.89997
▁high	-7.90362
▁items	-7.90544
▁running	-7.90636
▁jet	-7.91833
▁surfer	-7.93044
▁line	-7.93091
▁busy	-7.9342
▁ramp	-7.93561
▁hands	-7.94604
▁someone	-7.94794
▁like	-7.95464
▁passenger	-7.95512
▁dressed	-7.95801
▁male	-7.9643
▁lying	-7.9677
▁intersection	-7.97748
▁surfing	-7.99283
▁tray	-7.99533
▁book	-8.00084
▁mouth	-8.00235
▁him	-8.02066
▁suitcase	-8.02117
▁animal	-8.02426
▁cut	-8.02838
▁preparing	-8.0289
▁slice	-8.03149
▁he	-8.03773
▁screen	-8.04087
▁shown	-8.04402
▁made	-8.05458
▁bottle	-8.05564
▁half	-8.0567
▁bridge	-8.05723
▁bag	-8.05883
▁store	-8.05936
▁rides	-8.06097
▁colored	-8.06579
▁gray	-8.06632
▁batter	-8.07009
▁pulling	-8.07387
▁zoo	-8.08749
▁sleeping	-8.0952
▁scissors	-8.09575
▁number	-8.09908
▁donuts	-8.10074
▁look	-8.1052
▁dark	-8.1108
▁enclosure	-8.1153
▁way	-8.11699
▁surrounded	-8.12039
▁kids	-8.12266
▁tub	-8.12607
▁knife	-8.13237
▁sand	-8.13639
▁row	-8.13927
▁showing	-8.14449
▁between	-8.14623
▁jacket	-8.14681
▁play	-8.14798
▁microwave	-8.15031
▁decorated	-8.15499
▁adult	-8.15617
▁toy	-8.15617
▁lined	-8.16443
▁carrots	-8.17097
▁mouse	-8.17395
▁cabinets	-8.17635
▁silver	-8.17755
▁pile	-8.17815
▁boys	-8.17995
▁lake	-8.18176
▁few	-8.18478
▁forest	-8.19267
▁buses	-8.19755
▁meal	-8.19817
▁walks	-8.20617
▁girls	-8.20678
▁skiers	-8.20678
▁older	-8.21174
▁bread	-8.21298
▁purple	-8.22047
▁past	-8.22739
▁oranges	-8.22802
▁swing	-8.23372
▁furniture	-8.23754
▁seat	-8.23817
▁grey	-8.24201
▁hair	-8.24393
▁outdoor	-8.2601
▁kid	-8.26336
▁have	-8.27322
▁cloudy	-8.28051
▁throwing	-8.28051
▁displayed	-8.28652
▁waves	-8.28987
▁coming	-8.29054
▁attached	-8.29728
▁drink	-8.29932
▁monitor	-8.30339
▁photograph	-8.30612
▁making	-8.30885
▁leaning	-8.30954
▁chocolate	-8.31228
▁crossing	-8.31503
▁onto	-8.31848
▁can	-8.32056
▁cats	-8.3282
▁fork	-8.3317
▁dining	-8.3331
▁cross	-8.34014
▁drinking	-8.34865
▁shelf	-8.34865
▁painted	-8.35007
▁hitting	-8.35365
▁scene	-8.35365
▁lit	-8.35436
▁rocks	-8.3558
▁stone	-8.35939
▁birthday	-8.363
▁pan	-8.36589
▁salad	-8.36589
▁apples	-8.37682
▁seen	-8.37755
▁lush	-8.37829
▁watch	-8.37902
▁meter	-8.3827
▁fruits	-8.38417
▁no	-8.38491
▁walls	-8.38491
▁female	-8.38565
▁office	-8.38713
▁resting	-8.39829
▁towards	-8.40054
▁market	-8.40355
▁windows	-8.40581
▁public	-8.40958
▁rain	-8.42177
▁fries	-8.42484
▁sunny	-8.42638
▁flower	-8.42792
▁apple	-8.42946
▁tables	-8.43333
▁dish	-8.43644
▁plastic	-8.44111
▁books	-8.44503
▁bright	-8.44738
▁clean	-8.44974
▁been	-8.45925
▁stopped	-8.45925
▁sun	-8.45925
▁blanket	-8.46004
▁catch	-8.46084
▁pictures	-8.46084
▁leaves	-8.46164
▁surfboards	-8.46803
▁teeth	-8.47045
▁setting	-8.47448
▁moving	-8.47528
▁edge	-8.47771
▁beautiful	-8.48096
▁clear	-8.48585
▁rail	-8.48667
▁mountains	-8.48994
▁statue	-8.49241
▁working	-8.49405
▁dress	-8.49653
▁snowboarder	-8.49818
▁bikes	-8.50315
▁ride	-8.50399
▁underneath	-8.50816
▁donut	-8.50899
▁branch	-8.51654
▁platform	-8.51908
▁trying	-8.51908
▁uniform	-8.51992
▁yard	-8.52416
▁rock	-8.5267
▁helmet	-8.52841
▁bath	-8.52926
▁slices	-8.53097
▁country	-8.54821
▁time	-8.54821
▁shot	-8.54995
▁having	-8.55958
▁nice	-8.56134
▁controller	-8.56664
▁shows	-8.56841
▁or	-8.57286
▁computers	-8.57375
▁pieces	-8.57554
▁eat	-8.57733
▁motor	-8.58002
▁skateboarding	-8.58091
▁perched	-8.58722
▁cellphone	-8.58994
▁placed	-8.58994
▁eaten	-8.59266
▁pitch	-8.59539
▁wet	-8.59996
▁basket	-8.60088
▁base	-8.60271
▁path	-8.60363
▁case	-8.60639
▁cart	-8.60732
▁pizzas	-8.61194
▁passing	-8.61565
▁police	-8.61752
▁hotel	-8.61845
▁shore	-8.62032
▁cooking	-8.62406
▁vases	-8.62688
▁trains	-8.63065
▁surface	-8.63159
▁catcher	-8.63254
▁sandy	-8.63254
▁family	-8.63823
▁modern	-8.63918
▁boards	-8.64014
▁doughnut	-8.64014
▁dinner	-8.64109
▁plant	-8.64587
▁vehicle	-8.64779
▁lap	-8.65164
▁laptops	-8.65551
▁brushing	-8.65744
▁tiled	-8.65939
▁others	-8.66036
▁just	-8.66133
▁sauce	-8.66133
▁they	-8.66523
▁types	-8.66523
▁beer	-8.67013
▁reading	-8.67309
▁town	-8.67407
▁multiple	-8.68498
▁nintendo	-8.68498
▁watches	-8.68498
▁lamp	-8.68697
▁toppings	-8.68998
▁single	-8.69098
▁engine	-8.70005
▁doughnuts	-8.70512
▁variety	-8.70716
▁enjoying	-8.71124
▁pitcher	-8.71227
▁benches	-8.71329
▁mounted	-8.71329
▁post	-8.7174
▁bowls	-8.71843
▁fresh	-8.7205
▁jump	-8.7236
▁plants	-8.72568
▁distance	-8.72775
▁passengers	-8.72775
▁trucks	-8.73088
▁phones	-8.73193
▁guys	-8.73402
▁performing	-8.73716
▁gathered	-8.73821
▁tarmac	-8.73821
▁appliances	-8.74243
▁pretty	-8.74243
▁woods	-8.74243
▁bathtub	-8.74349
▁end	-8.74666
▁graffiti	-8.74772
▁cute	-8.75198
▁gear	-8.75518
▁rice	-8.75947
▁well	-8.7627
▁shoes	-8.76485
▁candles	-8.76702
▁curb	-8.76702
▁tricks	-8.7681
▁place	-8.76918
▁left	-8.77899
▁containing	-8.78009
▁pen	-8.78448
▁shop	-8.78779
▁fenced	-8.79111
▁chicken	-8.79667
▁carriage	-8.79891
▁cattle	-8.79891
▁bottles	-8.80002
▁five	-8.80002
▁flies	-8.80226
▁dirty	-8.80451
▁pasture	-8.80788
▁take	-8.80901
▁railroad	-8.81581
▁match	-8.81694
▁poles	-8.82036
▁school	-8.82265
▁below	-8.82379
▁concrete	-8.82839
▁right	-8.82839
▁dock	-8.83069
▁feeding	-8.83069
▁bags	-8.83184
▁fly	-8.84229
▁neck	-8.84346
▁steel	-8.84346
▁tile	-8.84346
▁after	-8.84463
▁drinks	-8.8458
▁brush	-8.84814
▁toothbrush	-8.85285
▁pot	-8.85639
▁including	-8.85995
▁striped	-8.86233
▁fireplace	-8.86352
▁takes	-8.86471
▁control	-8.8659
▁sofa	-8.8671
▁pulled	-8.8707
▁vintage	-8.8719
▁pillows	-8.8731
▁bar	-8.8743
▁shaped	-8.87792
▁crowded	-8.87913
▁rack	-8.88521
▁center	-8.88643
▁boxes	-8.89254
▁flat	-8.89254
▁sandwiches	-8.89377
▁planes	-8.89993
▁fridge	-8.90117
▁alone	-8.9024
▁nearby	-8.90364
▁she	-8.90862
▁both	-8.90987
▁polar	-8.91237
▁catching	-8.91487
▁vehicles	-8.91487
▁huge	-8.91613
▁sinks	-8.92243
▁reaching	-8.9237
▁container	-8.92496
▁feet	-8.92496
▁served	-8.93005
▁trunk	-8.93132
▁style	-8.9326
▁beds	-8.93515
▁church	-8.93515
▁sliced	-8.93643
▁arm	-8.93772
▁floating	-8.93772
▁bushes	-8.94158
▁dry	-8.94158
▁surfers	-8.94416
▁bicycles	-8.94674
▁skateboards	-8.95324
▁where	-8.95455
▁space	-8.95716
▁plays	-8.95847
▁suitcases	-8.95847
▁poses	-8.96241
▁atop	-8.96373
▁legs	-8.96769
▁asian	-8.97034
▁giant	-8.97034
▁mid	-8.97166
▁clothes	-8.97299
▁putting	-8.97432
▁taken	-8.97432
▁potatoes	-8.97566
▁professional	-8.97566
▁away	-8.97699
▁serve	-8.97833
▁sticking	-8.981
▁tomatoes	-8.981
▁prepares	-8.98234
▁airplanes	-8.98638
▁smiles	-8.98638
▁dishes	-8.98773
▁serving	-8.98773
▁towel	-8.98908
▁not	-8.99314
▁hay	-8.99858
▁foods	-8.99995
▁work	-8.99995
▁pose	-9.00132
▁cream	-9.00406
▁staring	-9.00406
▁which	-9.00543
▁lays	-9.00956
▁run	-9.00956
▁wild	-9.0137
▁cabinet	-9.02625
▁commercial	-9.03187
▁persons	-9.0347
▁spoon	-9.0347
▁christmas	-9.03753
▁trail	-9.03753
▁painting	-9.03895
▁reflection	-9.04037
▁show	-9.04037
▁cement	-9.0418
▁shorts	-9.0418
▁breakfast	-9.05038
▁wire	-9.05038
▁stacked	-9.05904
▁toward	-9.05904
▁round	-9.06049
▁cooked	-9.06339
▁subway	-9.06485
▁lone	-9.06631
▁backpack	-9.0707
▁mother	-9.07658
▁dessert	-9.07806
▁same	-9.07806
▁french	-9.07954
▁wedding	-9.08102
▁soup	-9.0825
▁cluttered	-9.08547
▁games	-9.08845
▁docked	-9.09594
▁highway	-9.09594
▁seated	-9.09594
▁adults	-9.10197
▁couches	-9.10197
▁throw	-9.10197
▁flag	-9.10501
▁outdoors	-9.10501
▁sunglasses	-9.10501
▁umpire	-9.10501
▁swings	-9.10652
▁pool	-9.10957
▁blender	-9.11415
▁business	-9.11568
▁boarding	-9.11876
▁stall	-9.12184
▁rug	-9.12493
▁swimming	-9.12648
▁get	-9.12803
▁go	-9.12803
▁controllers	-9.13739
▁pillow	-9.13739
▁clocks	-9.14053
▁drawn	-9.14053
▁assortment	-9.14368
▁drives	-9.14368
▁garden	-9.14526
▁hotdog	-9.14526
▁van	-9.14684
▁doors	-9.16118
▁low	-9.16118
▁restroom	-9.16924
▁desktop	-9.17411
▁foot	-9.17411
▁hillside	-9.17411
▁military	-9.17411
▁onions	-9.17573
▁team	-9.17573
▁bun	-9.179
▁kitten	-9.179
▁ledge	-9.179
▁shelves	-9.18063
▁among	-9.18391
▁trash	-9.1872
▁stainless	-9.19215
▁eyes	-9.19381
▁lawn	-9.19547
▁facing	-9.1988
▁jumps	-9.20047
▁wooded	-9.20047
▁flock	-9.20214
▁eats	-9.20549
▁skies	-9.20549
▁stairs	-9.20717
▁ice	-9.21391
▁fish	-9.2207
▁race	-9.22241
▁assorted	-9.22412
▁see	-9.22412
▁cups	-9.22754
▁steps	-9.2327
▁things	-9.23443
▁rocky	-9.23615
▁before	-9.23789
▁event	-9.23789
▁gate	-9.23789
▁eggs	-9.23962
▁pointing	-9.2431
▁desert	-9.25009
▁says	-9.25361
▁someones	-9.25361
▁clouds	-9.25714
▁closeup	-9.26067
▁land	-9.26245
▁toddler	-9.26245
▁ceiling	-9.26423
▁fashioned	-9.26423
▁broken	-9.26601
▁glove	-9.26779
▁electronic	-9.26958
▁arms	-9.27137
▁snowboarding	-9.27137
▁monitors	-9.27316
▁party	-9.27316
▁construction	-9.27856
▁picnic	-9.27856
▁landing	-9.28037
▁friends	-9.28218
▁arranged	-9.28763
▁closed	-9.28763
▁curtain	-9.28763
▁floors	-9.28945
▁rackets	-9.29128
▁tied	-9.29128
▁turn	-9.29128
▁wide	-9.29678
▁coat	-9.29862
▁overlooking	-9.29862
▁type	-9.30416
▁roof	-9.30973
▁boarder	-9.31159
▁cage	-9.31533
▁lunch	-9.31721
▁pots	-9.31721
▁does	-9.31909
▁tan	-9.31909
▁machine	-9.32474
▁new	-9.32474
▁vegetable	-9.33043
▁kind	-9.33424
▁narrow	-9.33424
▁cakes	-9.33615
▁kneeling	-9.33615
▁pond	-9.33615
▁colors	-9.3419
▁graze	-9.3419
▁reads	-9.3419
▁sale	-9.3419
▁skating	-9.3419
▁fancy	-9.34382
▁overhead	-9.34382
▁bottom	-9.34575
▁himself	-9.34575
▁messy	-9.35545
▁trailer	-9.35545
▁pasta	-9.36525
▁sides	-9.36722
▁rider	-9.36919
▁sunset	-9.36919
▁appears	-9.37315
▁plain	-9.37315
▁ties	-9.37315
▁cloth	-9.37713
▁object	-9.37713
▁mans	-9.38112
▁gold	-9.38312
▁pie	-9.38312
▁transit	-9.38312
▁veggies	-9.38312
▁suits	-9.38513
▁hold	-9.38714
▁towels	-9.38714
▁foreground	-9.38915
▁features	-9.39117
▁partially	-9.39117
▁was	-9.39117
▁bite	-9.39319
▁walkway	-9.39319
▁carrot	-9.39522
▁ear	-9.39725
▁leather	-9.39725
▁sea	-9.39725
▁toilets	-9.39928
▁shade	-9.40132
▁pastries	-9.40541
▁make	-9.40746
▁short	-9.40746
▁net	-9.40952
▁photos	-9.40952
▁urban	-9.41158
▁action	-9.41986
▁pants	-9.41986
▁clothing	-9.42403
▁chips	-9.43031
▁scooter	-9.43031
▁rest	-9.43241
▁blurry	-9.43452
▁commuter	-9.43663
▁device	-9.43663
▁beneath	-9.43875
▁palm	-9.43875
▁leash	-9.44087
▁held	-9.443
▁ship	-9.443
▁loaded	-9.44513
▁pepperoni	-9.44513
▁still	-9.44513
▁doorway	-9.4494
▁wrapped	-9.4494
▁what	-9.45154
▁fighter	-9.45369
▁smoke	-9.45369
▁baked	-9.45584
▁gets	-9.45584
▁lies	-9.45584
▁pastry	-9.458
▁petting	-9.458
▁houses	-9.46016
▁racing	-9.4645
▁toys	-9.46668
▁hole	-9.46886
▁grill	-9.47105
▁kinds	-9.47105
▁signal	-9.47324
▁tour	-9.47543
▁harbor	-9.47763
▁bow	-9.48205
▁structure	-9.48426
▁pedestrians	-9.48648
▁decorative	-9.48871
▁giving	-9.49317
▁contains	-9.49765
▁used	-9.49765
▁island	-9.4999
▁pier	-9.4999
▁deck	-9.50216
▁tomato	-9.50216
▁outfit	-9.51351
▁containers	-9.51809
▁lettuce	-9.51809
▁winter	-9.51809
▁apartment	-9.52038
▁sail	-9.52038
▁six	-9.52038
▁streets	-9.52038
▁prepared	-9.52268
▁includes	-9.52962
▁model	-9.52962
▁opened	-9.52962
▁part	-9.53194
▁garage	-9.53427
▁railing	-9.53427
▁peppers	-9.53661
▁rests	-9.53661
▁farm	-9.53894
▁stack	-9.53894
▁steam	-9.54129
▁beans	-9.54364
▁sized	-9.54364
▁hard	-9.546
▁multi	-9.546
▁vanity	-9.546
▁electric	-9.54836
▁lift	-9.54836
▁makes	-9.54836
▁upside	-9.55072
▁leading	-9.5531
▁bunches	-9.55547
▁ripe	-9.56025
▁papers	-9.56504
▁cap	-9.57228
▁waits	-9.57228
▁use	-9.57471
▁happy	-9.57957
▁tiny	-9.57957
▁pans	-9.58201
▁produce	-9.58201
▁sheet	-9.58201
▁doll	-9.58446
▁hats	-9.58446
▁tea	-9.58446
▁here	-9.58692
▁smart	-9.58692
▁turned	-9.58692
▁mound	-9.58938
▁pick	-9.58938
▁residential	-9.58938
▁soda	-9.58938
▁writing	-9.58938
▁rural	-9.59679
▁sheets	-9.59679
▁alongside	-9.59928
▁barn	-9.59928
▁brightly	-9.59928
▁cover	-9.59928
▁heads	-9.59928
▁shopping	-9.59928
▁lid	-9.60177
▁bacon	-9.60426
▁pavement	-9.60426
▁i	-9.60677
▁patio	-9.60677
▁urinals	-9.60677
▁but	-9.60928
▁color	-9.60928
▁these	-9.60928
▁nose	-9.61432
▁remotes	-9.61684
▁touching	-9.61684
▁directions	-9.62192
▁frosting	-9.62702
▁laid	-9.62702
▁flight	-9.62958
▁snowboards	-9.63215
▁disc	-9.63472
▁tooth	-9.63472
▁wetsuit	-9.63472
▁candle	-9.6373
▁carpet	-9.6373
▁rainy	-9.63989
▁smaller	-9.63989
▁branches	-9.64509
▁displaying	-9.64509
▁flags	-9.64509
▁log	-9.64509
▁milk	-9.64509
▁mug	-9.64509
▁wheel	-9.64509
▁pipe	-9.64769
▁roll	-9.64769
▁sort	-9.64769
▁juice	-9.65031
▁meters	-9.65031
▁do	-9.65293
▁ketchup	-9.65293
▁noodles	-9.65293
▁sill	-9.65293
▁officer	-9.65556
▁bush	-9.65819
▁costume	-9.65819
▁kicking	-9.65819
▁mustard	-9.65819
▁purse	-9.65819
▁riders	-9.65819
▁itself	-9.66084
▁sailing	-9.66084
▁ladies	-9.66348
▁personal	-9.66348
▁sliding	-9.66348
▁dresser	-9.6688
▁parade	-9.6688
▁deep	-9.67415
▁loading	-9.67415
▁american	-9.67684
▁only	-9.68223
▁smile	-9.68223
▁stuff	-9.68223
▁uniforms	-9.68223
▁lines	-9.68493
▁course	-9.69037
▁enclosed	-9.6931
▁utensils	-9.6931
▁gas	-9.69583
▁pickup	-9.69583
▁terminal	-9.69583
▁throws	-9.69583
▁waters	-9.69583
▁fun	-9.69858
▁rear	-9.69858
▁tent	-9.69858
▁mushrooms	-9.70133
▁sausage	-9.70133
▁approaching	-9.70408
▁trays	-9.70408
▁egg	-9.70685
▁sweater	-9.70685
▁beige	-9.70963
▁ducks	-9.70963
▁elderly	-9.71241
▁goats	-9.71241
▁leans	-9.71241
▁ornate	-9.71241
▁built	-9.7152
▁decorations	-9.7152
▁paddle	-9.7152
▁platter	-9.7152
▁fried	-9.71799
▁bride	-9.7208
▁goes	-9.7208
▁semi	-9.7208
▁propeller	-9.72361
▁vest	-9.72361
▁written	-9.72643
▁collection	-9.7321
▁tow	-9.7321
▁beverage	-9.73494
▁attempting	-9.7378
▁indoor	-9.7378
▁posted	-9.74066
▁fake	-9.74353
▁growing	-9.7464
▁rows	-9.7464
▁uses	-9.7464
▁greens	-9.74929
▁hangs	-9.74929
▁baskets	-9.75218
▁jets	-9.75218
▁direction	-9.75509
▁runs	-9.75509
▁passes	-9.76092
▁shoe	-9.76092
▁wind	-9.76385
▁relaxing	-9.76678
▁rolling	-9.76678
▁pulls	-9.76973
▁roadway	-9.76973
▁leg	-9.77268
▁potted	-9.77862
▁wheels	-9.77862
▁mitt	-9.7816
▁stadium	-9.7816
▁stick	-9.7816
▁paved	-9.78459
▁power	-9.78459
▁wires	-9.78459
▁crosswalk	-9.78759
▁spectators	-9.78759
▁glazed	-9.79059
▁rope	-9.79059
▁curled	-9.79361
▁sticks	-9.79361
▁aircraft	-9.79664
▁curtains	-9.79664
▁if	-9.79664
▁tank	-9.79664
▁t	-9.79967
▁bending	-9.80272
▁lamps	-9.80272
▁neatly	-9.80272
▁art	-9.80577
▁bull	-9.80577
▁guitar	-9.80577
▁missing	-9.80577
▁piled	-9.8119
▁siting	-9.8119
▁tops	-9.8119
▁wagon	-9.8119
▁shirtless	-9.81499
▁sports	-9.81499
▁electronics	-9.81808
▁block	-9.82118
▁falling	-9.82118
▁locomotive	-9.82118
▁practicing	-9.82118
▁airliner	-9.82429
▁museum	-9.82429
▁paint	-9.82429
▁telephone	-9.82429
▁frame	-9.83054
▁supplies	-9.83368
▁mirrors	-9.83683
▁toast	-9.83683
▁dead	-9.83999
▁sculpture	-9.83999
▁toothbrushes	-9.83999
▁packed	-9.84316
▁balls	-9.84953
▁formation	-9.84953
▁flown	-9.85273
▁how	-9.85273
▁performs	-9.85273
▁selfie	-9.85273
▁without	-9.85273
▁chain	-9.85594
▁gather	-9.85916
▁tiles	-9.85916
▁also	-9.86239
▁jeans	-9.86563
▁roses	-9.86563
▁stunt	-9.86563
▁bucket	-9.86888
▁cones	-9.86888
▁landscape	-9.86888
▁eye	-9.87214
▁pass	-9.87214
▁shoulder	-9.87214
▁garbage	-9.87542
▁we	-9.87542
▁groom	-9.8787
▁homemade	-9.8787
▁motion	-9.8787
▁wait	-9.8787
▁freezer	-9.882
▁good	-9.882
▁so	-9.882
▁surrounding	-9.882
▁toaster	-9.882
▁haired	-9.8853
▁pedestrian	-9.8853
▁selling	-9.8853
▁shirts	-9.8853
▁tail	-9.8853
▁flip	-9.88862
▁shallow	-9.88862
▁talks	-9.88862
▁tongue	-9.88862
▁hotdogs	-9.89195
▁images	-9.89195
▁puppy	-9.89195
▁strawberries	-9.89195
▁workers	-9.89195
▁floral	-9.89528
▁holder	-9.89528
▁skateboarders	-9.89528
▁cupcakes	-9.89864
▁hits	-9.89864
▁opposite	-9.89864
▁stream	-9.89864
▁covering	-9.902
▁ingredients	-9.902
▁spread	-9.902
▁downhill	-9.90537
▁fallen	-9.90537
▁stuck	-9.90537
▁thats	-9.90537
▁jetliner	-9.90875
▁objects	-9.90875
▁sprinkles	-9.90875
▁blankets	-9.91215
▁fluffy	-9.91215
▁pitching	-9.91215
▁travels	-9.91215
▁snowboarders	-9.91556
▁steep	-9.91556
▁life	-9.91897
▁put	-9.91897
▁bank	-9.92585
▁chef	-9.92585
▁asleep	-9.9293
▁featuring	-9.93625
▁you	-9.93625
▁gathering	-9.93974
▁horseback	-9.93974
▁marble	-9.93974
▁urinal	-9.93974
▁competition	-9.94324
▁frosted	-9.94324
▁icing	-9.94324
▁mixed	-9.94324
▁pack	-9.94324
▁counters	-9.94675
▁rolls	-9.94675
▁speed	-9.94675
▁headphones	-9.95028
▁pouring	-9.95382
▁entrance	-9.95737
▁faces	-9.95737
▁patch	-9.95737
▁beard	-9.96094
▁habitat	-9.96094
▁officers	-9.96452
▁pushing	-9.96452
▁checkered	-9.96811
▁handle	-9.96811
▁item	-9.96811
▁whole	-9.96811
▁cargo	-9.97171
▁feeder	-9.97171
▁microphone	-9.97171
▁pictured	-9.97533
▁skirt	-9.97533
▁us	-9.97533
▁blonde	-9.97896
▁fast	-9.97896
▁slopes	-9.97896
▁visible	-9.97896
▁design	-9.9826
▁drive	-9.9826
▁london	-9.9826
▁neon	-9.9826
▁string	-9.9826
▁travel	-9.9826
▁position	-9.98626
▁arrangement	-9.98993
▁laughing	-9.99361
▁stickers	-9.99361
▁batting	-9.99731
▁carries	-9.99731
▁name	-9.99731
▁napkin	-9.99731
▁range	-9.99731
▁reaches	-9.99731
▁shiny	-9.99731
▁covers	-10.001
▁womans	-10.001
▁blowing	-10.0085
▁climbing	-10.0085
▁desserts	-10.0085
▁golden	-10.0122
▁interior	-10.0122
▁moves	-10.0122
▁wears	-10.0122
▁basketball	-10.0198
▁ben	-10.0198
▁delicious	-10.0198
▁olives	-10.0198
▁bare	-10.0236
▁cookies	-10.0236
▁duck	-10.0236
▁great	-10.0236
▁opening	-10.0274
▁rainbow	-10.0312
▁beef	-10.035
▁gravel	-10.035
▁plaid	-10.035
▁controls	-10.0389
▁ahead	-10.0428
▁onion	-10.0428
▁first	-10.0467
▁mini	-10.0467
▁shape	-10.0467
▁straw	-10.0467
▁cardboard	-10.0506
▁childs	-10.0545
▁cleaning	-10.0584
▁lane	-10.0584
▁miniature	-10.0584
▁fan	-10.0623
▁foil	-10.0623
▁lighting	-10.0623
▁potato	-10.0623
▁clay	-10.0663
▁displays	-10.0703
▁far	-10.0703
▁fishing	-10.0703
▁grilled	-10.0703
▁hang	-10.0703
▁butter	-10.0743
▁checking	-10.0743
▁goat	-10.0743
▁hills	-10.0743
▁wing	-10.0743
▁advertisement	-10.0783
▁fountain	-10.0783
▁ham	-10.0783
▁bunk	-10.0823
▁condiments	-10.0823
▁located	-10.0823
▁bookshelf	-10.0863
▁corn	-10.0863
▁jar	-10.0863
▁mobile	-10.0863
▁seats	-10.0863
▁shadow	-10.0945
▁catches	-10.0986
▁size	-10.0986
▁flooring	-10.1027
▁hood	-10.1027
▁newspaper	-10.1027
▁thin	-10.1027
▁rusty	-10.1068
▁turning	-10.1068
▁unmade	-10.1068
▁carts	-10.1109
▁posed	-10.1109
▁story	-10.1109
▁tools	-10.1109
▁travelling	-10.1109
▁forward	-10.1151
▁muddy	-10.1151
▁pickle	-10.1151
▁aerial	-10.1193
▁league	-10.1193
▁bent	-10.1235
▁either	-10.1235
▁industrial	-10.1235
▁pet	-10.1235
▁st	-10.1235
▁tabby	-10.1235
▁trolley	-10.1235
▁herself	-10.1277
▁sharing	-10.1277
▁attire	-10.1319
▁frisbees	-10.1319
▁series	-10.1319
▁meadow	-10.1361
▁helping	-10.1404
▁return	-10.1404
▁seems	-10.1404
▁stage	-10.1404
▁stares	-10.1404
▁cafe	-10.1447
▁comforter	-10.1447
▁crust	-10.1447
▁exhibit	-10.1447
▁iron	-10.1447
▁burger	-10.149
▁following	-10.149
▁words	-10.149
▁chili	-10.1533
▁more	-10.1533
▁watering	-10.1533
▁gloves	-10.1576
▁grapes	-10.1576
▁paw	-10.1576
▁rusted	-10.1576
▁sleeps	-10.1576
▁advertising	-10.162
▁hallway	-10.162
▁nicely	-10.162
▁steeple	-10.162
▁biting	-10.1664
▁brushes	-10.1664
▁freshly	-10.1664
▁steak	-10.1664
▁teams	-10.1664
▁accessories	-10.1708
▁multicolored	-10.1708
▁blow	-10.1752
▁railway	-10.1752
▁seagulls	-10.1752
▁twin	-10.1752
▁library	-10.1796
▁pancakes	-10.1796
▁stoplight	-10.1796
▁tasty	-10.1796
▁thrown	-10.1796
▁almost	-10.1841
▁ceramic	-10.1841
▁mostly	-10.1841
▁chinese	-10.1886
▁wings	-10.1886
▁baking	-10.1931
▁funny	-10.1931
▁system	-10.1931
▁balcony	-10.1976
▁hospital	-10.1976
▁lay	-10.1976
▁chefs	-10.2021
▁coach	-10.2021
▁backs	-10.2067
▁calf	-10.2067
▁chasing	-10.2067
▁cuts	-10.2067
▁dishwasher	-10.2067
▁heart	-10.2067
▁leaving	-10.2067
▁marina	-10.2067
▁neighborhood	-10.2067
▁paws	-10.2067
▁designed	-10.2112
▁matching	-10.2112
▁picking	-10.2158
▁amongst	-10.2205
▁gentleman	-10.2205
▁heavy	-10.2205
▁horns	-10.2205
▁hose	-10.2205
▁hugging	-10.2205
▁statues	-10.2205
▁heading	-10.2251
▁metallic	-10.2251
▁prepare	-10.2251
▁countryside	-10.2298
▁cowboy	-10.2298
▁hamburger	-10.2344
▁tunnel	-10.2344
▁buffet	-10.2391
▁connected	-10.2391
▁driveway	-10.2391
▁dryer	-10.2391
▁trunks	-10.2391
▁typing	-10.2391
▁audience	-10.2439
▁collar	-10.2439
▁cupcake	-10.2439
▁cycle	-10.2439
▁folded	-10.2439
▁sniffing	-10.2439
▁foreign	-10.2486
▁formal	-10.2486
▁jumbo	-10.2486
▁shining	-10.2486
▁calm	-10.2534
▁rose	-10.2534
▁booth	-10.2582
▁chopped	-10.2582
▁lamb	-10.2582
▁rails	-10.2582
▁bakery	-10.263
▁individual	-10.263
▁larger	-10.263
▁magnets	-10.263
▁mat	-10.263
▁tractor	-10.263
▁boots	-10.2679
▁castle	-10.2679
▁devices	-10.2679
▁dimly	-10.2679
▁piano	-10.2679
▁santa	-10.2679
▁sets	-10.2679
▁sunlight	-10.2679
▁tries	-10.2679
▁bars	-10.2727
▁downtown	-10.2727
▁lighthouse	-10.2727
▁para	-10.2727
▁alley	-10.2776
▁candy	-10.2776
▁circular	-10.2776
▁entertainment	-10.2776
▁fans	-10.2776
▁natural	-10.2776
▁stool	-10.2776
▁dusk	-10.2825
▁organized	-10.2825
▁poster	-10.2825
▁sub	-10.2825
▁thick	-10.2825
▁mask	-10.2875
▁motorbike	-10.2875
▁resort	-10.2875
▁seagull	-10.2875
▁cases	-10.2924
▁cold	-10.2924
▁propped	-10.2924
▁abandoned	-10.2974
▁baggage	-10.2974
▁chest	-10.2974
▁father	-10.2974
▁smoking	-10.2974
▁hiding	-10.3024
▁bearded	-10.3075
▁helmets	-10.3125
▁sugar	-10.3125
▁washing	-10.3125
▁busses	-10.3176
▁chewing	-10.3176
▁cupboards	-10.3176
▁decor	-10.3176
▁focus	-10.3176
▁neat	-10.3176
▁onlookers	-10.3176
▁progress	-10.3176
▁shaking	-10.3176
▁worker	-10.3176
▁backyard	-10.3227
▁tossing	-10.3227
▁cook	-10.3279
▁furry	-10.3279
▁kick	-10.3279
▁bay	-10.333
▁framed	-10.333
▁lounging	-10.333
▁males	-10.333
▁mud	-10.333
▁point	-10.333
▁reflected	-10.333
▁separate	-10.333
▁storage	-10.333
▁upon	-10.333
▁bell	-10.3382
▁besides	-10.3382
▁odd	-10.3382
▁parrot	-10.3382
▁section	-10.3382
▁ears	-10.3435
▁grazes	-10.3435
▁mattress	-10.3435
▁motorcyclist	-10.3435
▁apron	-10.3487
▁card	-10.3487
▁cigarette	-10.3487
▁cliff	-10.3487
▁collage	-10.3487
▁contents	-10.3487
▁tablet	-10.3487
▁belt	-10.354
▁evening	-10.354
▁owner	-10.354
▁sailboat	-10.354
▁spinach	-10.3593
▁bikers	-10.3646
▁catchers	-10.3646
▁daytime	-10.3646
▁raised	-10.3646
▁weather	-10.3646
▁football	-10.37
▁lounge	-10.37
▁skiis	-10.37
▁golf	-10.3754
▁kitty	-10.3754
▁lemon	-10.3754
▁licking	-10.3754
▁porch	-10.3754
▁silverware	-10.3754
▁circle	-10.3808
▁crosses	-10.3808
▁driver	-10.3808
▁strip	-10.3808
▁taxi	-10.3808
▁cookie	-10.3862
▁drivers	-10.3862
▁hardwood	-10.3862
▁ladder	-10.3862
▁bats	-10.3917
▁scarf	-10.3917
▁wilderness	-10.3917
▁adorable	-10.3972
▁canopy	-10.3972
▁leafy	-10.3972
▁really	-10.3972
▁screens	-10.3972
▁cabin	-10.4028
▁finger	-10.4028
▁goggles	-10.4028
▁grocery	-10.4028
▁peeled	-10.4028
▁word	-10.4028
▁bikini	-10.4083
▁freight	-10.4083
▁lambs	-10.4083
▁magazine	-10.4083
▁pony	-10.4083
▁ring	-10.4083
▁saying	-10.4083
▁scattered	-10.4083
▁clutter	-10.4139
▁decoration	-10.4139
▁lemons	-10.4139
▁simple	-10.4139
▁balancing	-10.4196
▁dump	-10.4196
▁peeking	-10.4196
▁warning	-10.4196
▁countertop	-10.4252
▁move	-10.4252
▁nuts	-10.4252
▁tag	-10.4252
▁tourists	-10.4252
▁towering	-10.4252
▁amount	-10.4309
▁drawers	-10.4309
▁jungle	-10.4309
▁moped	-10.4309
▁pigeons	-10.4309
▁sizes	-10.4309
▁stretching	-10.4309
▁break	-10.4367
▁delivery	-10.4367
▁logs	-10.4367
▁safety	-10.4367
▁tire	-10.4367
▁balloons	-10.4424
▁jockey	-10.4424
▁played	-10.4424
▁son	-10.4424
▁spot	-10.4424
▁straight	-10.4424
▁students	-10.4424
▁shops	-10.4482
▁themselves	-10.4482
▁closet	-10.4541
▁courtyard	-10.4541
▁fighting	-10.4541
▁jersey	-10.4541
▁numerous	-10.4541
▁pickles	-10.4541
▁service	-10.4541
▁suspended	-10.4541
▁turkey	-10.4541
▁tusks	-10.4541
▁classroom	-10.4599
▁fixing	-10.4599
▁indoors	-10.4599
▁photographs	-10.4599
▁sticker	-10.4599
▁beverages	-10.4658
▁buns	-10.4658
▁complete	-10.4658
▁figure	-10.4658
▁hung	-10.4658
▁leaf	-10.4658
▁spray	-10.4658
▁army	-10.4718
▁crane	-10.4718
▁healthy	-10.4718
▁pairs	-10.4718
▁ribbon	-10.4718
▁topping	-10.4718
▁berries	-10.4777
▁obstacle	-10.4777
▁plaza	-10.4777
▁pull	-10.4777
▁vegetation	-10.4777
▁cellphones	-10.4837
▁feed	-10.4837
▁port	-10.4837
▁fall	-10.4898
▁foggy	-10.4898
▁motorcyclists	-10.4898
▁pine	-10.4898
▁positioned	-10.4898
▁blond	-10.4959
▁enjoy	-10.4959
▁panda	-10.4959
▁shoreline	-10.4959
▁speakers	-10.4959
▁stops	-10.4959
▁talk	-10.4959
▁headed	-10.502
▁muffin	-10.502
▁cereal	-10.5081
▁own	-10.5081
▁slightly	-10.5081
▁surfs	-10.5081
▁war	-10.5081
▁consisting	-10.5143
▁furnished	-10.5143
▁groups	-10.5143
▁shrimp	-10.5143
▁slicing	-10.5143
▁strange	-10.5143
▁canoe	-10.5206
▁goods	-10.5206
▁paddling	-10.5206
▁puts	-10.5206
▁skyline	-10.5206
▁snack	-10.5206
▁tin	-10.5206
▁approaches	-10.5268
▁arena	-10.5268
▁married	-10.5268
▁nap	-10.5268
▁scooters	-10.5268
▁airlines	-10.5331
▁arrow	-10.5331
▁crossed	-10.5331
▁layer	-10.5331
▁monkey	-10.5331
▁points	-10.5331
▁reflecting	-10.5331
▁waterway	-10.5331
▁wear	-10.5331
▁attempts	-10.5395
▁comes	-10.5395
▁cone	-10.5395
▁fabric	-10.5395
▁music	-10.5395
▁oriental	-10.5395
▁designs	-10.5459
▁farmers	-10.5459
▁friend	-10.5459
▁illuminated	-10.5459
▁lighted	-10.5459
▁process	-10.5459
▁rustic	-10.5459
▁seven	-10.5459
▁than	-10.5459
▁village	-10.5459
▁grabbing	-10.5523
▁numbers	-10.5523
▁sideways	-10.5523
▁bald	-10.5588
▁caught	-10.5588
▁cop	-10.5588
▁cushion	-10.5588
▁faucet	-10.5588
▁granite	-10.5588
▁leaping	-10.5588
▁level	-10.5588
▁meeting	-10.5588
▁wading	-10.5588
▁dispenser	-10.5653
▁fixtures	-10.5653
▁observing	-10.5653
▁bathing	-10.5718
▁bedspread	-10.5718
▁cans	-10.5718
▁leads	-10.5718
▁pad	-10.5718
▁waving	-10.5718
▁pedestal	-10.5784
▁softball	-10.5784
▁teenager	-10.5784
▁classic	-10.5851
▁s	-10.5851
▁trough	-10.5851
▁unusual	-10.5851
▁beak	-10.5918
▁bin	-10.5918
▁cauliflower	-10.5918
▁drawing	-10.5918
▁interesting	-10.5918
▁split	-10.5918
▁spoons	-10.5918
▁sport	-10.5918
▁toothpaste	-10.5918
▁wit	-10.5918
▁cheesy	-10.5985
▁den	-10.5985
▁flooded	-10.5985
▁mall	-10.5985
▁patterned	-10.5985
▁pens	-10.5985
▁step	-10.5985
▁conversation	-10.6053
▁guard	-10.6053
▁load	-10.6053
▁strapped	-10.6053
▁terrain	-10.6053
▁basin	-10.6121
▁boogie	-10.6121
▁doubles	-10.6121
▁fully	-10.6121
▁reach	-10.6121
▁second	-10.6121
▁themed	-10.6121
▁tropical	-10.6121
▁valley	-10.6121
▁works	-10.6121
▁come	-10.619
▁monument	-10.619
▁peanut	-10.619
▁sailboats	-10.619
▁dried	-10.6259
▁individuals	-10.6259
▁snacks	-10.6259
▁soap	-10.6259
▁desks	-10.6329
▁had	-10.6329
▁print	-10.6329
▁stance	-10.6329
▁stopping	-10.6329
▁helicopter	-10.6399
▁knives	-10.6399
▁owl	-10.6399
▁pepper	-10.6399
▁pin	-10.6399
▁tags	-10.6399
▁utility	-10.6399
▁canal	-10.647
▁freeway	-10.647
▁kept	-10.647
▁much	-10.647
▁piles	-10.647
▁portrait	-10.647
▁turns	-10.647
▁forks	-10.6541
▁greenery	-10.6541
▁herding	-10.6541
▁conference	-10.6613
▁english	-10.6613
▁factory	-10.6613
▁heard	-10.6613
▁language	-10.6613
▁roaming	-10.6613
▁skater	-10.6613
▁tablecloth	-10.6613
▁tasting	-10.6613
▁transportation	-10.6613
▁deer	-10.6685
▁diamond	-10.6685
▁link	-10.6685
▁massive	-10.6685
▁notebook	-10.6685
▁pattern	-10.6685
▁shades	-10.6685
▁soldiers	-10.6685
▁vendor	-10.6685
▁within	-10.6685
▁button	-10.6757
▁celebrating	-10.6757
▁costumes	-10.6757
▁elegant	-10.6757
▁hooked	-10.6757
▁roman	-10.6757
▁site	-10.6757
▁handing	-10.6831
▁jackets	-10.6831
▁order	-10.6831
▁overpass	-10.6831
▁spraying	-10.6831
▁upright	-10.6831
▁wake	-10.6831
▁boarders	-10.6905
▁curve	-10.6905
▁indicating	-10.6905
▁jars	-10.6905
▁photographer	-10.6905
▁soft	-10.6905
▁tents	-10.6905
▁backdrop	-10.6979
▁bit	-10.6979
▁cellular	-10.6979
▁console	-10.6979
▁crib	-10.6979
▁depot	-10.6979
▁grinding	-10.6979
▁hangar	-10.6979
▁seating	-10.6979
▁cartoon	-10.7054
▁extended	-10.7054
▁figurine	-10.7054
▁gives	-10.7054
▁hall	-10.7054
▁practice	-10.7054
▁speaking	-10.7054
▁tape	-10.7054
▁thumbs	-10.7054
▁fashion	-10.7129
▁products	-10.7129
▁thing	-10.7129
▁third	-10.7129
▁chained	-10.7205
▁keys	-10.7205
▁pug	-10.7205
▁weird	-10.7205
▁wrapper	-10.7205
▁adjusting	-10.7282
▁airborne	-10.7282
▁buggy	-10.7282
▁cleaned	-10.7282
▁drawer	-10.7282
▁include	-10.7282
▁message	-10.7282
▁raft	-10.7282
▁babies	-10.7359
▁naked	-10.7359
▁posts	-10.7359
▁african	-10.7437
▁circus	-10.7437
▁dough	-10.7437
▁drying	-10.7437
▁hauling	-10.7437
▁human	-10.7437
▁kissing	-10.7437
▁love	-10.7437
▁overcast	-10.7437
▁parachute	-10.7437
▁photographed	-10.7437
▁signals	-10.7437
▁trio	-10.7437
▁bagel	-10.7515
▁childrens	-10.7515
▁peel	-10.7515
▁polka	-10.7515
▁stir	-10.7515
▁customers	-10.7594
▁elevated	-10.7594
▁mashed	-10.7594
▁savannah	-10.7594
▁sneakers	-10.7594
▁stores	-10.7594
▁strawberry	-10.7594
▁stroller	-10.7594
▁will	-10.7594
▁fat	-10.7674
▁learning	-10.7674
▁main	-10.7674
▁meats	-10.7674
▁pitchers	-10.7674
▁windowsill	-10.7674
▁geese	-10.7754
▁pathway	-10.7754
▁such	-10.7754
▁winding	-10.7754
▁world	-10.7754
▁am	-10.7835
▁barbed	-10.7835
▁cab	-10.7835
▁cathedral	-10.7835
▁disk	-10.7835
▁knees	-10.7835
▁mens	-10.7835
▁placing	-10.7835
▁printer	-10.7835
▁rowing	-10.7835
▁star	-10.7835
▁teenage	-10.7835
▁toasted	-10.7835
▁worn	-10.7835
▁competing	-10.7917
▁conveyor	-10.7917
▁festival	-10.7917
▁gravy	-10.7917
▁grown	-10.7917
▁mom	-10.7917
▁note	-10.7917
▁pears	-10.7917
▁plains	-10.7917
▁towing	-10.7917
▁wicker	-10.7917
▁aged	-10.7999
▁british	-10.7999
▁carry	-10.7999
▁china	-10.7999
▁knee	-10.7999
▁lobby	-10.7999
▁metro	-10.7999
▁puddle	-10.7999
▁read	-10.7999
▁adorned	-10.8082
▁chrome	-10.8082
▁daughter	-10.8082
▁figurines	-10.8082
▁foliage	-10.8082
▁grab	-10.8082
▁logo	-10.8082
▁places	-10.8082
▁sails	-10.8082
▁shines	-10.8082
▁stable	-10.8082
▁staircase	-10.8082
▁stools	-10.8082
▁uncooked	-10.8082
▁warehouse	-10.8082
▁calico	-10.8166
▁carousel	-10.8166
▁closely	-10.8166
▁cooks	-10.8166
▁cruise	-10.8166
▁depicting	-10.8166
▁digital	-10.8166
▁directly	-10.8166
▁too	-10.8166
▁towers	-10.8166
▁backpacks	-10.825
▁boardwalk	-10.825
▁cluster	-10.825
▁commode	-10.825
▁dot	-10.825
▁most	-10.825
▁n	-10.825
▁names	-10.825
▁package	-10.825
▁returning	-10.825
▁stationary	-10.825
▁tight	-10.825
▁tourist	-10.825
▁bookcase	-10.8336
▁electrical	-10.8336
▁fur	-10.8336
▁headboard	-10.8336
▁lie	-10.8336
▁medium	-10.8336
▁ostrich	-10.8336
▁runner	-10.8336
▁shrubs	-10.8336
▁shuttle	-10.8336
▁cloud	-10.8421
▁crate	-10.8421
▁deserted	-10.8421
▁enter	-10.8421
▁european	-10.8421
▁fed	-10.8421
▁frying	-10.8421
▁kettle	-10.8421
▁marked	-10.8421
▁rings	-10.8421
▁ships	-10.8421
▁were	-10.8421
▁asphalt	-10.8508
▁chopsticks	-10.8508
▁roadside	-10.8508
▁stepping	-10.8508
▁suite	-10.8508
▁swim	-10.8508
▁tube	-10.8508
▁when	-10.8508
▁balances	-10.8595
▁coke	-10.8595
▁fingers	-10.8595
▁float	-10.8595
▁keyboards	-10.8595
▁mixture	-10.8595
▁ones	-10.8595
▁scenic	-10.8595
▁slide	-10.8595
▁stalls	-10.8595
▁balloon	-10.8683
▁band	-10.8683
▁help	-10.8683
▁intently	-10.8683
▁opponent	-10.8683
▁shapes	-10.8683
▁stretches	-10.8683
▁stripes	-10.8683
▁suv	-10.8683
▁unit	-10.8683
▁crouching	-10.8772
▁cubicle	-10.8772
▁dipping	-10.8772
▁dual	-10.8772
▁entering	-10.8772
▁hind	-10.8772
▁macaroni	-10.8772
▁paintings	-10.8772
▁podium	-10.8772
▁radio	-10.8772
▁raw	-10.8772
▁stomach	-10.8772
▁bicyclist	-10.8862
▁dressing	-10.8862
▁ferry	-10.8862
▁fog	-10.8862
▁force	-10.8862
▁frozen	-10.8862
▁limb	-10.8862
▁newly	-10.8862
▁partly	-10.8862
▁planter	-10.8862
▁powdered	-10.8862
▁racks	-10.8862
▁shoulders	-10.8862
▁starting	-10.8862
▁stretched	-10.8862
▁sweet	-10.8862
▁artwork	-10.8952
▁checks	-10.8952
▁class	-10.8952
▁movie	-10.8952
▁mushroom	-10.8952
▁now	-10.8952
▁peering	-10.8952
▁rubbing	-10.8952
▁silhouette	-10.8952
▁soldier	-10.8952
▁storm	-10.8952
▁uniformed	-10.8952
▁appear	-10.9044
▁barrier	-10.9044
▁cola	-10.9044
▁crates	-10.9044
▁environment	-10.9044
▁extra	-10.9044
▁listening	-10.9044
▁major	-10.9044
▁maroon	-10.9044
▁operating	-10.9044
▁pies	-10.9044
▁policeman	-10.9044
▁refrigerators	-10.9044
▁rocking	-10.9044
▁signage	-10.9044
▁texting	-10.9044
▁theres	-10.9044
▁washer	-10.9044
▁cobblestone	-10.9136
▁curved	-10.9136
▁elaborate	-10.9136
▁floats	-10.9136
▁fry	-10.9136
▁muffins	-10.9136
▁skillet	-10.9136
▁spacious	-10.9136
▁tagged	-10.9136
▁thru	-10.9136
▁wildlife	-10.9136
▁artistic	-10.9229
▁blinds	-10.9229
▁cherry	-10.9229
▁dusty	-10.9229
▁infant	-10.9229
▁key	-10.9229
▁midair	-10.9229
▁rectangular	-10.9229
▁sushi	-10.9229
▁younger	-10.9229
▁biker	-10.9323
▁clearing	-10.9323
▁dip	-10.9323
▁eight	-10.9323
▁feeds	-10.9323
▁hitter	-10.9323
▁remodeled	-10.9323
▁shots	-10.9323
▁speeding	-10.9323
▁spotted	-10.9323
▁alcohol	-10.9418
▁angle	-10.9418
▁barrel	-10.9418
▁blurred	-10.9418
▁cool	-10.9418
▁done	-10.9418
▁dozen	-10.9418
▁figures	-10.9418
▁grandfather	-10.9418
▁outfits	-10.9418
▁self	-10.9418
▁start	-10.9418
▁wash	-10.9418
▁bowling	-10.9513
▁cupboard	-10.9513
▁goal	-10.9513
▁needs	-10.9513
▁skinny	-10.9513
▁sofas	-10.9513
▁stacks	-10.9513
▁bigger	-10.961
▁bulls	-10.961
▁crackers	-10.961
▁cub	-10.961
▁fair	-10.961
▁flipping	-10.961
▁gaming	-10.961
▁indian	-10.961
▁lodge	-10.961
▁pocket	-10.961
▁touch	-10.961
▁volley	-10.961
▁array	-10.9708
▁balance	-10.9708
▁banner	-10.9708
▁barren	-10.9708
▁carriages	-10.9708
▁hiking	-10.9708
▁identical	-10.9708
▁japanese	-10.9708
▁jeep	-10.9708
▁leaned	-10.9708
▁nightstand	-10.9708
▁serves	-10.9708
▁spots	-10.9708
▁stunts	-10.9708
▁tissue	-10.9708
▁unfinished	-10.9708
▁any	-10.9806
▁awaiting	-10.9806
▁bamboo	-10.9806
▁bunny	-10.9806
▁coast	-10.9806
▁craft	-10.9806
▁dancing	-10.9806
▁diner	-10.9806
▁engaged	-10.9806
▁pajamas	-10.9806
▁parts	-10.9806
▁pitched	-10.9806
▁plush	-10.9806
▁shrubbery	-10.9806
▁sprinkled	-10.9806
▁syrup	-10.9806
▁tee	-10.9806
▁tidy	-10.9806
▁traditional	-10.9806
▁try	-10.9806
▁viewed	-10.9806
▁viewing	-10.9806
▁walled	-10.9806
▁weeds	-10.9806
▁batters	-10.9906
▁bicyclists	-10.9906
▁else	-10.9906
▁glowing	-10.9906
▁gourmet	-10.9906
▁ha	-10.9906
▁mountainous	-10.9906
▁necks	-10.9906
▁notes	-10.9906
▁porcelain	-10.9906
▁sad	-10.9906
▁stair	-10.9906
▁tiger	-10.9906
▁united	-10.9906
▁upward	-10.9906
▁apart	-11.0006
▁attractive	-11.0006
▁cooling	-11.0006
▁forested	-11.0006
▁jelly	-11.0006
▁lining	-11.0006
▁menu	-11.0006
▁nest	-11.0006
▁opens	-11.0006
▁skiier	-11.0006
▁somewhere	-11.0006
▁teenagers	-11.0006
▁youth	-11.0006
▁alarm	-11.0108
▁dont	-11.0108
▁iced	-11.0108
▁moored	-11.0108
▁motel	-11.0108
▁pipes	-11.0108
▁pork	-11.0108
▁powered	-11.0108
▁roller	-11.0108
▁rubber	-11.0108
▁sleep	-11.0108
▁stump	-11.0108
▁yogurt	-11.0108
▁care	-11.021
▁chickens	-11.021
▁crouched	-11.021
▁locked	-11.021
▁map	-11.021
▁rough	-11.021
▁selection	-11.021
▁stripped	-11.021
▁ad	-11.0314
▁appliance	-11.0314
▁billboard	-11.0314
▁buttons	-11.0314
▁cast	-11.0314
▁engines	-11.0314
▁harness	-11.0314
▁horned	-11.0314
▁letting	-11.0314
▁loaf	-11.0314
▁sausages	-11.0314
▁spatula	-11.0314
▁tiered	-11.0314
▁towed	-11.0314
▁warm	-11.0314
▁zone	-11.0314
▁altered	-11.0419
▁avenue	-11.0419
▁capped	-11.0419
▁cubs	-11.0419
▁eagle	-11.0419
▁entree	-11.0419
▁handles	-11.0419
▁letters	-11.0419
▁ovens	-11.0419
▁ram	-11.0419
▁sharp	-11.0419
▁silly	-11.0419
▁strings	-11.0419
▁stripe	-11.0419
▁swung	-11.0419
▁treats	-11.0419
▁ave	-11.0524
▁breaking	-11.0524
▁called	-11.0524
▁caption	-11.0524
▁females	-11.0524
▁lifting	-11.0524
▁pigeon	-11.0524
▁possibly	-11.0524
▁suburban	-11.0524
▁transport	-11.0524
▁wheelchair	-11.0524
▁blood	-11.0631
▁chandelier	-11.0631
▁company	-11.0631
▁cutter	-11.0631
▁dolls	-11.0631
▁dozens	-11.0631
▁falls	-11.0631
▁free	-11.0631
▁garlic	-11.0631
▁halves	-11.0631
▁happily	-11.0631
▁hut	-11.0631
▁junk	-11.0631
▁lime	-11.0631
▁navy	-11.0631
▁necktie	-11.0631
▁playground	-11.0631
▁shaggy	-11.0631
▁unripe	-11.0631
▁windshield	-11.0631
▁blocking	-11.0739
▁celery	-11.0739
▁dim	-11.0739
▁firetruck	-11.0739
▁fuzzy	-11.0739
▁led	-11.0739
▁maker	-11.0739
▁oil	-11.0739
▁perches	-11.0739
▁pottery	-11.0739
▁adjacent	-11.0849
▁bends	-11.0849
▁check	-11.0849
▁faced	-11.0849
▁feathers	-11.0849
▁furnishings	-11.0849
▁grouped	-11.0849
▁heels	-11.0849
▁hipster	-11.0849
▁money	-11.0849
▁mural	-11.0849
▁o	-11.0849
▁separated	-11.0849
▁tuxedo	-11.0849
▁tying	-11.0849
▁whipped	-11.0849
▁afternoon	-11.0959
▁aluminum	-11.0959
▁call	-11.0959
▁decked	-11.0959
▁dugout	-11.0959
▁followed	-11.0959
▁grasses	-11.0959
▁guests	-11.0959
▁hanger	-11.0959
▁holes	-11.0959
▁hoodie	-11.0959
▁hydrants	-11.0959
▁mean	-11.0959
▁mixing	-11.0959
▁ottoman	-11.0959
▁peas	-11.0959
▁plenty	-11.0959
▁poised	-11.0959
▁skates	-11.0959
▁socks	-11.0959
▁stained	-11.0959
▁steer	-11.0959
▁teaching	-11.0959
▁wrap	-11.0959
▁bidet	-11.1071
▁blocks	-11.1071
▁claim	-11.1071
▁coats	-11.1071
▁donkey	-11.1071
▁german	-11.1071
▁local	-11.1071
▁outstretched	-11.1071
▁pets	-11.1071
▁pointed	-11.1071
▁relish	-11.1071
▁theme	-11.1071
▁toiletries	-11.1071
▁treat	-11.1071
▁wheeled	-11.1071
▁accents	-11.1184
▁compact	-11.1184
▁delta	-11.1184
▁directing	-11.1184
▁excited	-11.1184
▁form	-11.1184
▁grizzly	-11.1184
▁hilly	-11.1184
▁interacting	-11.1184
▁interactive	-11.1184
▁lead	-11.1184
▁pads	-11.1184
▁panel	-11.1184
▁portion	-11.1184
▁ridding	-11.1184
▁setup	-11.1184
▁speaker	-11.1184
▁special	-11.1184
▁steering	-11.1184
▁tram	-11.1184
▁unloading	-11.1184
▁vandalized	-11.1184
▁york	-11.1184
▁antelope	-11.1298
▁barefoot	-11.1298
▁cards	-11.1298
▁cops	-11.1298
▁cycles	-11.1298
▁driven	-11.1298
▁gym	-11.1298
▁news	-11.1298
▁parasailing	-11.1298
▁portable	-11.1298
▁repair	-11.1298
▁scale	-11.1298
▁slides	-11.1298
▁sweatshirt	-11.1298
▁watched	-11.1298
▁beyond	-11.1414
▁dinning	-11.1414
▁gliding	-11.1414
▁leave	-11.1414
▁plan	-11.1414
▁rabbit	-11.1414
▁real	-11.1414
▁robe	-11.1414
▁text	-11.1414
▁trim	-11.1414
▁windsurfing	-11.1414
▁bedding	-11.1531
▁cabbage	-11.1531
▁coleslaw	-11.1531
▁cyclist	-11.1531
▁flowered	-11.1531
▁herbs	-11.1531
▁kneels	-11.1531
▁poking	-11.1531
▁trip	-11.1531
▁waterfall	-11.1531
▁club	-11.1649
▁crest	-11.1649
▁peeling	-11.1649
▁pineapple	-11.1649
▁provide	-11.1649
▁ramps	-11.1649
▁rim	-11.1649
▁rise	-11.1649
▁roads	-11.1649
▁sleek	-11.1649
▁swans	-11.1649
▁teen	-11.1649
▁training	-11.1649
▁bricks	-11.1769
▁briefcase	-11.1769
▁carved	-11.1769
▁corral	-11.1769
▁cucumbers	-11.1769
▁distant	-11.1769
▁exit	-11.1769
▁gun	-11.1769
▁holiday	-11.1769
▁layered	-11.1769
▁legged	-11.1769
▁private	-11.1769
▁raising	-11.1769
▁situated	-11.1769
▁ten	-11.1769
▁vast	-11.1769
▁wandering	-11.1769
▁airline	-11.189
▁anchored	-11.189
▁character	-11.189
▁finished	-11.189
▁folding	-11.189
▁incoming	-11.189
▁inflatable	-11.189
▁leaps	-11.189
▁lego	-11.189
▁measuring	-11.189
▁melted	-11.189
▁midst	-11.189
▁page	-11.189
▁perform	-11.189
▁pillar	-11.189
▁route	-11.189
▁shed	-11.189
▁slab	-11.189
▁stocked	-11.189
▁swan	-11.189
▁unable	-11.189
▁backwards	-11.2013
▁carrier	-11.2013
▁chopping	-11.2013
▁comfortable	-11.2013
▁could	-11.2013
▁crouches	-11.2013
▁dashboard	-11.2013
▁frisbe	-11.2013
▁ipod	-11.2013
▁location	-11.2013
▁members	-11.2013
▁nearly	-11.2013
▁peace	-11.2013
▁price	-11.2013
▁prop	-11.2013
▁roast	-11.2013
▁saddle	-11.2013
▁sculptures	-11.2013
▁sled	-11.2013
▁travelers	-11.2013
▁wallpaper	-11.2013
▁asparagus	-11.2137
▁cheesecake	-11.2137
▁kayak	-11.2137
▁machines	-11.2137
▁numerals	-11.2137
▁plugged	-11.2137
▁sewing	-11.2137
▁share	-11.2137
▁slow	-11.2137
▁smartphone	-11.2137
▁soaked	-11.2137
▁stew	-11.2137
▁strike	-11.2137
▁tires	-11.2137
▁arch	-11.2263
▁areas	-11.2263
▁bend	-11.2263
▁biplane	-11.2263
▁champagne	-11.2263
▁creek	-11.2263
▁handbag	-11.2263
▁heavily	-11.2263
▁mantle	-11.2263
▁material	-11.2263
▁materials	-11.2263
▁outfield	-11.2263
▁slowly	-11.2263
▁smiley	-11.2263
▁those	-11.2263
▁caged	-11.239
▁caution	-11.239
▁cooler	-11.239
▁cord	-11.239
▁flatbed	-11.239
▁helps	-11.239
▁jockeys	-11.239
▁keep	-11.239
▁knitted	-11.239
▁pay	-11.239
▁pushed	-11.239
▁rolled	-11.239
▁smelling	-11.239
▁stare	-11.239
▁studio	-11.239
▁surprised	-11.239
▁though	-11.239
▁times	-11.239
▁clown	-11.2519
▁coca	-11.2519
▁combination	-11.2519
▁compartment	-11.2519
▁cyclists	-11.2519
▁diving	-11.2519
▁installed	-11.2519
▁mixer	-11.2519
▁mustache	-11.2519
▁opposing	-11.2519
▁oval	-11.2519
▁pit	-11.2519
▁stating	-11.2519
▁takeoff	-11.2519
▁threw	-11.2519
▁washington	-11.2519
▁wax	-11.2519
▁airfield	-11.265
▁bites	-11.265
▁canoes	-11.265
▁casserole	-11.265
▁colorfully	-11.265
▁emergency	-11.265
▁grassland	-11.265
▁huddled	-11.265
▁landed	-11.265
▁mac	-11.265
▁meals	-11.265
▁plated	-11.265
▁saucer	-11.265
▁shaded	-11.265
▁sparse	-11.265
▁taped	-11.265
▁tending	-11.265
▁touches	-11.265
▁bleachers	-11.2782
▁cabinetry	-11.2782
▁fields	-11.2782
▁information	-11.2782
▁instruments	-11.2782
▁lonely	-11.2782
▁lower	-11.2782
▁mess	-11.2782
▁mote	-11.2782
▁motorbikes	-11.2782
▁parallel	-11.2782
▁parasol	-11.2782
▁penguin	-11.2782
▁powder	-11.2782
▁shake	-11.2782
▁singing	-11.2782
▁soaring	-11.2782
▁stretch	-11.2782
▁styled	-11.2782
▁tulips	-11.2782
▁upper	-11.2782
▁yarn	-11.2782
▁angry	-11.2917
▁blueberries	-11.2917
▁bookshelves	-11.2917
▁bullet	-11.2917
▁cages	-11.2917
▁canadian	-11.2917
▁celebration	-11.2917
▁chains	-11.2917
▁characters	-11.2917
▁comfortably	-11.2917
▁convention	-11.2917
▁cords	-11.2917
▁dresses	-11.2917
▁give	-11.2917
▁king	-11.2917
▁lab	-11.2917
▁labeled	-11.2917
▁medical	-11.2917
▁oncoming	-11.2917
▁owners	-11.2917
▁pirate	-11.2917
▁polo	-11.2917
▁protective	-11.2917
▁rams	-11.2917
▁rodeo	-11.2917
▁shelving	-11.2917
▁skatepark	-11.2917
▁sporting	-11.2917
▁athlete	-11.3053
▁carpeted	-11.3053
▁coin	-11.3053
▁completely	-11.3053
▁directional	-11.3053
▁filling	-11.3053
▁historic	-11.3053
▁mopeds	-11.3053
▁napkins	-11.3053
▁nothing	-11.3053
▁obama	-11.3053
▁sauces	-11.3053
▁spaghetti	-11.3053
▁stems	-11.3053
▁streetlight	-11.3053
▁tucked	-11.3053
▁volleyball	-11.3053
▁beginning	-11.3191
▁best	-11.3191
▁college	-11.3191
▁crew	-11.3191
▁darkened	-11.3191
▁extremely	-11.3191
▁frames	-11.3191
▁iphone	-11.3191
▁m	-11.3191
▁nine	-11.3191
▁perch	-11.3191
▁presentation	-11.3191
▁relaxes	-11.3191
▁similar	-11.3191
▁state	-11.3191
▁surround	-11.3191
▁ultimate	-11.3191
▁veggie	-11.3191
▁barbecue	-11.333
▁basil	-11.333
▁brocolli	-11.333
▁camping	-11.333
▁dragon	-11.333
▁extends	-11.333
▁featured	-11.333
▁greeting	-11.333
▁lens	-11.333
▁policemen	-11.333
▁presents	-11.333
▁referee	-11.333
▁scratching	-11.333
▁siamese	-11.333
▁summer	-11.333
▁clearly	-11.3472
▁crashing	-11.3472
▁deserts	-11.3472
▁ends	-11.3472
▁even	-11.3472
▁file	-11.3472
▁grand	-11.3472
▁jam	-11.3472
▁moon	-11.3472
▁musical	-11.3472
▁parents	-11.3472
▁printed	-11.3472
▁states	-11.3472
▁strewn	-11.3472
▁waffles	-11.3472
▁watermelon	-11.3472
▁wool	-11.3472
▁arriving	-11.3616
▁artificial	-11.3616
▁begins	-11.3616
▁bins	-11.3616
▁buffalo	-11.3616
▁cable	-11.3616
▁curious	-11.3616
▁flowing	-11.3616
▁glides	-11.3616
▁honey	-11.3616
▁mail	-11.3616
▁may	-11.3616
▁mexican	-11.3616
▁mix	-11.3616
▁need	-11.3616
▁nighttime	-11.3616
▁olive	-11.3616
▁paddles	-11.3616
▁preparation	-11.3616
▁shredded	-11.3616
▁sold	-11.3616
▁steamed	-11.3616
▁tarp	-11.3616
▁amid	-11.3762
▁arched	-11.3762
▁burning	-11.3762
▁competitive	-11.3762
▁curvy	-11.3762
▁draped	-11.3762
▁everything	-11.3762
▁exposed	-11.3762
▁gazing	-11.3762
▁makeup	-11.3762
▁motorized	-11.3762
▁mugs	-11.3762
▁picked	-11.3762
▁pig	-11.3762
▁rounding	-11.3762
▁yet	-11.3762
▁architecture	-11.391
▁balanced	-11.391
▁butterfly	-11.391
▁carnival	-11.391
▁cloudless	-11.391
▁cozy	-11.391
▁department	-11.391
▁easy	-11.391
▁everyone	-11.391
▁lifts	-11.391
▁mountainside	-11.391
▁projector	-11.391
▁stars	-11.391
▁stirring	-11.391
▁taxis	-11.391
▁telling	-11.391
▁tethered	-11.391
▁vendors	-11.391
▁windy	-11.391
▁buckets	-11.4061
▁countertops	-11.4061
▁crown	-11.4061
▁damaged	-11.4061
▁doesnt	-11.4061
▁early	-11.4061
▁finish	-11.4061
▁follows	-11.4061
▁jumped	-11.4061
▁rotten	-11.4061
▁skiiers	-11.4061
▁storefront	-11.4061
▁today	-11.4061
▁tool	-11.4061
▁tug	-11.4061
▁wallet	-11.4061
▁automobile	-11.4213
▁barrels	-11.4213
▁cafeteria	-11.4213
▁change	-11.4213
▁consists	-11.4213
▁dad	-11.4213
▁deli	-11.4213
▁district	-11.4213
▁enjoys	-11.4213
▁everywhere	-11.4213
▁grabs	-11.4213
▁kicks	-11.4213
▁kit	-11.4213
▁know	-11.4213
▁limit	-11.4213
▁lion	-11.4213
▁president	-11.4213
▁regular	-11.4213
▁sepia	-11.4213
▁sprouts	-11.4213
▁stones	-11.4213
▁then	-11.4213
▁vacant	-11.4213
▁varieties	-11.4213
▁warming	-11.4213
▁wheeler	-11.4213
▁belly	-11.4368
▁bundle	-11.4368
▁cameras	-11.4368
▁choppy	-11.4368
▁exiting	-11.4368
▁liner	-11.4368
▁nestled	-11.4368
▁plow	-11.4368
▁propellers	-11.4368
▁random	-11.4368
▁raspberries	-11.4368
▁relax	-11.4368
▁removed	-11.4368
▁safari	-11.4368
▁say	-11.4368
▁striking	-11.4368
▁tide	-11.4368
▁tortilla	-11.4368
▁airways	-11.4526
▁avocado	-11.4526
▁businesses	-11.4526
▁camper	-11.4526
▁cemetery	-11.4526
▁dorm	-11.4526
▁filed	-11.4526
▁fill	-11.4526
▁hello	-11.4526
▁holders	-11.4526
▁homes	-11.4526
▁icy	-11.4526
▁marker	-11.4526
▁microwaves	-11.4526
▁passed	-11.4526
▁peers	-11.4526
▁project	-11.4526
▁rises	-11.4526
▁rising	-11.4526
▁sanding	-11.4526
▁smothered	-11.4526
▁sniffs	-11.4526
▁somewhat	-11.4526
▁bad	-11.4686
▁compete	-11.4686
▁dairy	-11.4686
▁debris	-11.4686
▁depicts	-11.4686
▁faded	-11.4686
▁garnish	-11.4686
▁hummingbird	-11.4686
▁kiwi	-11.4686
▁lanes	-11.4686
▁magazines	-11.4686
▁milking	-11.4686
▁mirrored	-11.4686
▁morning	-11.4686
▁posters	-11.4686
▁sells	-11.4686
▁shady	-11.4686
▁skills	-11.4686
▁slaw	-11.4686
▁spices	-11.4686
▁trainer	-11.4686
▁vests	-11.4686
▁wetsuits	-11.4686
▁belongings	-11.4849
▁border	-11.4849
▁bumper	-11.4849
▁buss	-11.4849
▁carton	-11.4849
▁earth	-11.4849
▁limes	-11.4849
▁non	-11.4849
▁paneled	-11.4849
▁sexy	-11.4849
▁shadows	-11.4849
▁splash	-11.4849
▁submerged	-11.4849
▁underwear	-11.4849
▁wireless	-11.4849
▁brand	-11.5014
▁bricked	-11.5014
▁clad	-11.5014
▁crystal	-11.5014
▁cucumber	-11.5014
▁curly	-11.5014
▁facility	-11.5014
▁flavored	-11.5014
▁garnished	-11.5014
▁gated	-11.5014
▁kiteboarding	-11.5014
▁lounges	-11.5014
▁oddly	-11.5014
▁pours	-11.5014
▁serious	-11.5014
▁shaving	-11.5014
▁smoothie	-11.5014
▁speeds	-11.5014
▁winds	-11.5014
▁blows	-11.5182
▁crowds	-11.5182
▁dance	-11.5182
▁dilapidated	-11.5182
▁dotted	-11.5182
▁escalator	-11.5182
▁expression	-11.5182
▁farmer	-11.5182
▁historical	-11.5182
▁hook	-11.5182
▁indicates	-11.5182
▁italian	-11.5182
▁kiss	-11.5182
▁kittens	-11.5182
▁let	-11.5182
▁livestock	-11.5182
▁mama	-11.5182
▁mesh	-11.5182
▁must	-11.5182
▁nursing	-11.5182
▁oak	-11.5182
▁overlooks	-11.5182
▁picks	-11.5182
▁racer	-11.5182
▁rather	-11.5182
▁security	-11.5182
▁skyscraper	-11.5182
▁stem	-11.5182
▁strong	-11.5182
▁sword	-11.5182
▁televisions	-11.5182
▁wok	-11.5182
▁arrows	-11.5353
▁attention	-11.5353
▁backhand	-11.5353
▁burnt	-11.5353
▁crafts	-11.5353
▁decorating	-11.5353
▁dust	-11.5353
▁eyed	-11.5353
▁frizbee	-11.5353
▁gazelle	-11.5353
▁gentlemen	-11.5353
▁grouping	-11.5353
▁hundreds	-11.5353
▁knocked	-11.5353
▁linens	-11.5353
▁medicine	-11.5353
▁metropolitan	-11.5353
▁noses	-11.5353
▁paperwork	-11.5353
▁parent	-11.5353
▁pregnant	-11.5353
▁present	-11.5353
▁protest	-11.5353
▁ridden	-11.5353
▁rooms	-11.5353
▁sandals	-11.5353
▁sided	-11.5353
▁student	-11.5353
▁sunflowers	-11.5353
▁trailing	-11.5353
▁waffle	-11.5353
▁wines	-11.5353
▁amidst	-11.5527
▁blocked	-11.5527
▁breast	-11.5527
▁bronze	-11.5527
▁cherries	-11.5527
▁chop	-11.5527
▁citrus	-11.5527
▁docks	-11.5527
▁entry	-11.5527
▁guiding	-11.5527
▁lovely	-11.5527
▁paste	-11.5527
▁pushes	-11.5527
▁retail	-11.5527
▁rugs	-11.5527
▁skyscrapers	-11.5527
▁starbucks	-11.5527
▁styrofoam	-11.5527
▁tabletop	-11.5527
▁tilted	-11.5527
▁vending	-11.5527
▁athletic	-11.5704
▁bagels	-11.5704
▁bundled	-11.5704
▁buying	-11.5704
▁camouflage	-11.5704
▁comb	-11.5704
▁cuddling	-11.5704
▁daylight	-11.5704
▁exotic	-11.5704
▁formally	-11.5704
▁gone	-11.5704
▁hairy	-11.5704
▁handicap	-11.5704
▁hovering	-11.5704
▁meet	-11.5704
▁pale	-11.5704
▁raises	-11.5704
▁skull	-11.5704
▁stairway	-11.5704
▁stoplights	-11.5704
▁symbol	-11.5704
▁tier	-11.5704
▁visitors	-11.5704
▁washroom	-11.5704
▁admiring	-11.5884
▁already	-11.5884
▁autumn	-11.5884
▁backed	-11.5884
▁bean	-11.5884
▁cinnamon	-11.5884
▁custom	-11.5884
▁describe	-11.5884
▁except	-11.5884
▁flips	-11.5884
▁handed	-11.5884
▁lean	-11.5884
▁lettering	-11.5884
▁me	-11.5884
▁mouths	-11.5884
▁napping	-11.5884
▁pretending	-11.5884
▁retro	-11.5884
▁ropes	-11.5884
▁savanna	-11.5884
▁seeds	-11.5884
▁shelter	-11.5884
▁snuggling	-11.5884
▁spire	-11.5884
▁splashing	-11.5884
▁stalk	-11.5884
▁tofu	-11.5884
▁torn	-11.5884
▁amusement	-11.6067
▁ancient	-11.6067
▁beers	-11.6067
▁bottled	-11.6067
▁canada	-11.6067
▁ceremony	-11.6067
▁deckered	-11.6067
▁dome	-11.6067
▁evergreen	-11.6067
▁foam	-11.6067
▁grain	-11.6067
▁hawk	-11.6067
▁hes	-11.6067
▁horn	-11.6067
▁job	-11.6067
▁knacks	-11.6067
▁late	-11.6067
▁lifted	-11.6067
▁littered	-11.6067
▁markers	-11.6067
▁milling	-11.6067
▁monster	-11.6067
▁otherwise	-11.6067
▁pencils	-11.6067
▁record	-11.6067
▁robot	-11.6067
▁seafood	-11.6067
▁tired	-11.6067
▁twilight	-11.6067
▁washed	-11.6067
▁advertisements	-11.6254
▁alert	-11.6254
▁barely	-11.6254
▁busted	-11.6254
▁cane	-11.6254
▁climb	-11.6254
▁cramped	-11.6254
▁decorate	-11.6254
▁fine	-11.6254
▁frog	-11.6254
▁goose	-11.6254
▁hooded	-11.6254
▁horizon	-11.6254
▁incline	-11.6254
▁inspecting	-11.6254
▁lite	-11.6254
▁mill	-11.6254
▁patrons	-11.6254
▁peacock	-11.6254
▁pilot	-11.6254
▁reclining	-11.6254
▁scenery	-11.6254
▁sectional	-11.6254
▁seem	-11.6254
▁shepherd	-11.6254
▁stored	-11.6254
▁teal	-11.6254
▁transporting	-11.6254
▁trashcan	-11.6254
▁typical	-11.6254
▁walked	-11.6254
▁adjusts	-11.6445
▁archway	-11.6445
▁attending	-11.6445
▁awning	-11.6445
▁burner	-11.6445
▁caboose	-11.6445
▁captured	-11.6445
▁cole	-11.6445
▁creepy	-11.6445
▁destination	-11.6445
▁digging	-11.6445
▁divided	-11.6445
▁dots	-11.6445
▁embracing	-11.6445
▁extending	-11.6445
▁fit	-11.6445
▁found	-11.6445
▁gates	-11.6445
▁goalie	-11.6445
▁handicapped	-11.6445
▁hazy	-11.6445
▁lapse	-11.6445
▁mascot	-11.6445
▁mass	-11.6445
▁native	-11.6445
▁ofa	-11.6445
▁personnel	-11.6445
▁pillars	-11.6445
▁platters	-11.6445
▁radiator	-11.6445
▁removing	-11.6445
▁returns	-11.6445
▁sesame	-11.6445
▁sheeps	-11.6445
▁somebody	-11.6445
▁stormy	-11.6445
▁tanker	-11.6445
▁taxiing	-11.6445
▁tournament	-11.6445
▁trey	-11.6445
▁triple	-11.6445
▁waterfront	-11.6445
▁whit	-11.6445
▁accident	-11.6639
▁accompanied	-11.6639
▁alpine	-11.6639
▁ambulance	-11.6639
▁appearing	-11.6639
▁ascending	-11.6639
▁contemporary	-11.6639
▁conversing	-11.6639
▁drain	-11.6639
▁examining	-11.6639
▁grapefruit	-11.6639
▁hidden	-11.6639
▁hooks	-11.6639
▁hovers	-11.6639
▁kits	-11.6639
▁octopus	-11.6639
▁olympic	-11.6639
▁packages	-11.6639
▁pc	-11.6639
▁peach	-11.6639
▁processor	-11.6639
▁pump	-11.6639
▁reflective	-11.6639
▁reflects	-11.6639
▁roasted	-11.6639
▁rv	-11.6639
▁sunshine	-11.6639
▁surfboarding	-11.6639
▁swims	-11.6639
▁tangerines	-11.6639
▁tip	-11.6639
▁wiping	-11.6639
▁wrapping	-11.6639
▁airstrip	-11.6837
▁athletes	-11.6837
▁barriers	-11.6837
▁beached	-11.6837
▁beanie	-11.6837
▁bells	-11.6837
▁bouncing	-11.6837
▁boxing	-11.6837
▁bunt	-11.6837
▁calculator	-11.6837
▁courts	-11.6837
▁cracked	-11.6837
▁employees	-11.6837
▁fight	-11.6837
▁fist	-11.6837
▁fixture	-11.6837
▁grinds	-11.6837
▁hammer	-11.6837
▁heater	-11.6837
▁instrument	-11.6837
▁laugh	-11.6837
▁laundry	-11.6837
▁licks	-11.6837
▁lips	-11.6837
▁live	-11.6837
▁official	-11.6837
▁partial	-11.6837
▁pumpkins	-11.6837
▁puppies	-11.6837
▁recording	-11.6837
▁remains	-11.6837
▁renovated	-11.6837
▁seed	-11.6837
▁shaved	-11.6837
▁tattoo	-11.6837
▁trolly	-11.6837
▁waling	-11.6837
▁your	-11.6837
▁aisle	-11.7039
▁basic	-11.7039
▁because	-11.7039
▁berry	-11.7039
▁biking	-11.7039
▁businessman	-11.7039
▁buy	-11.7039
▁casual	-11.7039
▁chews	-11.7039
▁chin	-11.7039
▁cityscape	-11.7039
▁climbs	-11.7039
▁daisies	-11.7039
▁dropping	-11.7039
▁enormous	-11.7039
▁examines	-11.7039
▁expanse	-11.7039
▁fences	-11.7039
▁focused	-11.7039
▁galloping	-11.7039
▁guide	-11.7039
▁machinery	-11.7039
▁named	-11.7039
▁ornaments	-11.7039
▁peeks	-11.7039
▁peoples	-11.7039
▁pita	-11.7039
▁positions	-11.7039
▁practices	-11.7039
▁push	-11.7039
▁salmon	-11.7039
▁salon	-11.7039
▁settings	-11.7039
▁shells	-11.7039
▁snowsuit	-11.7039
▁spinning	-11.7039
▁stockings	-11.7039
▁wig	-11.7039
▁attempt	-11.7245
▁beat	-11.7245
▁biscuits	-11.7245
▁bulldog	-11.7245
▁calves	-11.7245
▁candies	-11.7245
▁dense	-11.7245
▁drapes	-11.7245
▁engaging	-11.7245
▁foal	-11.7245
▁gift	-11.7245
▁got	-11.7245
▁knick	-11.7245
▁languages	-11.7245
▁length	-11.7245
▁moment	-11.7245
▁patiently	-11.7245
▁political	-11.7245
▁presented	-11.7245
▁radishes	-11.7245
▁raining	-11.7245
▁sandwhich	-11.7245
▁sections	-11.7245
▁shell	-11.7245
▁should	-11.7245
▁sidecar	-11.7245
▁solar	-11.7245
▁speech	-11.7245
▁strips	-11.7245
▁thumb	-11.7245
▁toned	-11.7245
▁vane	-11.7245
▁vanilla	-11.7245
▁views	-11.7245
▁ways	-11.7245
▁wedge	-11.7245
▁wired	-11.7245
▁would	-11.7245
▁year	-11.7245
▁analog	-11.7456
▁available	-11.7456
▁baseman	-11.7456
▁burners	-11.7456
▁camp	-11.7456
▁cant	-11.7456
▁carried	-11.7456
▁crab	-11.7456
▁dragging	-11.7456
▁fedora	-11.7456
▁fleet	-11.7456
▁gadgets	-11.7456
▁gang	-11.7456
▁gown	-11.7456
▁grooming	-11.7456
▁hug	-11.7456
▁interstate	-11.7456
▁jug	-11.7456
▁loft	-11.7456
▁marching	-11.7456
▁markings	-11.7456
▁noodle	-11.7456
▁packaged	-11.7456
▁peak	-11.7456
▁plantains	-11.7456
▁ponies	-11.7456
▁probably	-11.7456
▁pumpkin	-11.7456
▁readies	-11.7456
▁recliner	-11.7456
▁reins	-11.7456
▁rod	-11.7456
▁salt	-11.7456
▁scissor	-11.7456
▁showroom	-11.7456
▁spring	-11.7456
▁stoves	-11.7456
▁theater	-11.7456
▁thread	-11.7456
▁ticket	-11.7456
▁trails	-11.7456
▁warns	-11.7456
▁west	-11.7456
▁workstation	-11.7456
▁yummy	-11.7456
▁affixed	-11.7671
▁amtrak	-11.7671
▁begin	-11.7671
▁biscuit	-11.7671
▁came	-11.7671
▁camel	-11.7671
▁carefully	-11.7671
▁cave	-11.7671
▁charging	-11.7671
▁cloths	-11.7671
▁crawling	-11.7671
▁currently	-11.7671
▁delivering	-11.7671
▁downward	-11.7671
▁dvd	-11.7671
▁finishing	-11.7671
▁garb	-11.7671
▁goers	-11.7671
▁halloween	-11.7671
▁handled	-11.7671
▁instructions	-11.7671
▁int	-11.7671
▁krispy	-11.7671
▁marketplace	-11.7671
▁median	-11.7671
▁mice	-11.7671
▁nature	-11.7671
▁neutral	-11.7671
▁ornament	-11.7671
▁parrots	-11.7671
▁peaches	-11.7671
▁pokes	-11.7671
▁pro	-11.7671
▁sidewalks	-11.7671
▁skin	-11.7671
▁slanted	-11.7671
▁sparsely	-11.7671
▁waist	-11.7671
▁western	-11.7671
▁added	-11.7891
▁bandana	-11.7891
▁barber	-11.7891
▁bib	-11.7891
▁bill	-11.7891
▁boot	-11.7891
▁bug	-11.7891
▁burrito	-11.7891
▁cactus	-11.7891
▁captivity	-11.7891
▁contest	-11.7891
▁extreme	-11.7891
▁fedex	-11.7891
▁ginger	-11.7891
▁grove	-11.7891
▁household	-11.7891
▁husky	-11.7891
▁idle	-11.7891
▁knit	-11.7891
▁letter	-11.7891
▁levels	-11.7891
▁linen	-11.7891
▁makeshift	-11.7891
▁mosaic	-11.7891
▁numeral	-11.7891
▁omelet	-11.7891
▁ranch	-11.7891
▁refridgerator	-11.7891
▁residence	-11.7891
▁snowing	-11.7891
▁vans	-11.7891
▁vertical	-11.7891
▁weathered	-11.7891
▁womens	-11.7891
▁wooly	-11.7891
▁zucchini	-11.7891
▁approach	-11.8115
▁breads	-11.8115
▁cd	-11.8115
▁charger	-11.8115
▁cheeses	-11.8115
▁claw	-11.8115
▁complex	-11.8115
▁concert	-11.8115
▁conductor	-11.8115
▁consumption	-11.8115
▁crocheted	-11.8115
▁diaper	-11.8115
▁drop	-11.8115
▁enough	-11.8115
▁fencing	-11.8115
▁filthy	-11.8115
▁flowery	-11.8115
▁futon	-11.8115
▁glider	-11.8115
▁gothic	-11.8115
▁haircut	-11.8115
▁hammock	-11.8115
▁leap	-11.8115
▁might	-11.8115
▁needle	-11.8115
▁overgrown	-11.8115
▁oxen	-11.8115
▁peacefully	-11.8115
▁peaking	-11.8115
▁populated	-11.8115
▁reception	-11.8115
▁roam	-11.8115
▁rust	-11.8115
▁sight	-11.8115
▁sleigh	-11.8115
▁snuggled	-11.8115
▁sour	-11.8115
▁standard	-11.8115
▁stereo	-11.8115
▁stuffing	-11.8115
▁stylish	-11.8115
▁super	-11.8115
▁trimmed	-11.8115
▁upwards	-11.8115
▁waste	-11.8115
▁able	-11.8345
▁assembly	-11.8345
▁awaits	-11.8345
▁babys	-11.8345
▁caps	-11.8345
▁carving	-11.8345
▁changing	-11.8345
▁clocktower	-11.8345
▁compartments	-11.8345
▁destroyed	-11.8345
▁diced	-11.8345
▁fell	-11.8345
▁ferris	-11.8345
▁film	-11.8345
▁flamingos	-11.8345
▁flowering	-11.8345
▁foraging	-11.8345
▁glow	-11.8345
▁grilling	-11.8345
▁hamburgers	-11.8345
▁headlights	-11.8345
▁hoagie	-11.8345
▁hoop	-11.8345
▁huddle	-11.8345
▁hunched	-11.8345
▁intricate	-11.8345
▁kreme	-11.8345
▁laden	-11.8345
▁mozzarella	-11.8345
▁nasty	-11.8345
▁necklace	-11.8345
▁patriotic	-11.8345
▁pepsi	-11.8345
▁pop	-11.8345
▁pressing	-11.8345
▁product	-11.8345
▁rundown	-11.8345
▁server	-11.8345
▁shine	-11.8345
▁shooting	-11.8345
▁sleepy	-11.8345
▁sound	-11.8345
▁styles	-11.8345
▁substance	-11.8345
▁teapot	-11.8345
▁ugly	-11.8345
▁barge	-11.8581
▁beautifully	-11.8581
▁blazer	-11.8581
▁blueberry	-11.8581
▁bubble	-11.8581
▁central	-11.8581
▁channel	-11.8581
▁croissant	-11.8581
▁cushions	-11.8581
▁descending	-11.8581
▁diners	-11.8581
▁florets	-11.8581
▁fryer	-11.8581
▁halfway	-11.8581
▁hedge	-11.8581
▁herded	-11.8581
▁instead	-11.8581
▁label	-11.8581
▁lamppost	-11.8581
▁lands	-11.8581
▁laughs	-11.8581
▁meatballs	-11.8581
▁motorboat	-11.8581
▁packing	-11.8581
▁parks	-11.8581
▁pic	-11.8581
▁races	-11.8581
▁royal	-11.8581
▁seeing	-11.8581
▁shack	-11.8581
▁signing	-11.8581
▁speaks	-11.8581
▁spewing	-11.8581
▁supermarket	-11.8581
▁support	-11.8581
▁tails	-11.8581
▁toilette	-11.8581
▁tongs	-11.8581
▁tossed	-11.8581
▁turtle	-11.8581
▁underground	-11.8581
▁unused	-11.8581
▁utensil	-11.8581
▁wheelie	-11.8581
▁wrong	-11.8581
▁aboard	-11.8822
▁activities	-11.8822
▁animated	-11.8822
▁blooming	-11.8822
▁brass	-11.8822
▁bridle	-11.8822
▁broadway	-11.8822
▁clothed	-11.8822
▁columns	-11.8822
▁combing	-11.8822
▁contraption	-11.8822
▁controlled	-11.8822
▁depicted	-11.8822
▁dude	-11.8822
▁england	-11.8822
▁groomed	-11.8822
▁housing	-11.8822
▁important	-11.8822
▁leashes	-11.8822
▁litter	-11.8822
▁macbook	-11.8822
▁maintenance	-11.8822
▁memorial	-11.8822
▁mitts	-11.8822
▁pelican	-11.8822
▁pencil	-11.8822
▁perfect	-11.8822
▁pineapples	-11.8822
▁poured	-11.8822
▁rally	-11.8822
▁replica	-11.8822
▁sell	-11.8822
▁sing	-11.8822
▁sorts	-11.8822
▁stages	-11.8822
▁sunlit	-11.8822
▁th	-11.8822
▁tosses	-11.8822
▁trekking	-11.8822
▁vegetarian	-11.8822
▁viewer	-11.8822
▁wrought	-11.8822
▁architectural	-11.9068
▁asia	-11.9068
▁beauty	-11.9068
▁blade	-11.9068
▁blades	-11.9068
▁boston	-11.9068
▁brief	-11.9068
▁browns	-11.9068
▁casting	-11.9068
▁coated	-11.9068
▁contact	-11.9068
▁curiously	-11.9068
▁customer	-11.9068
▁docking	-11.9068
▁exterior	-11.9068
▁gentle	-11.9068
▁hearts	-11.9068
▁helmeted	-11.9068
▁herds	-11.9068
▁jack	-11.9068
▁layed	-11.9068
▁leopard	-11.9068
▁meatball	-11.9068
▁murky	-11.9068
▁newspapers	-11.9068
▁packs	-11.9068
▁pauses	-11.9068
▁plank	-11.9068
▁rd	-11.9068
▁root	-11.9068
▁san	-11.9068
▁stay	-11.9068
▁studying	-11.9068
▁surroundings	-11.9068
▁taller	-11.9068
▁tone	-11.9068
▁virgin	-11.9068
▁wander	-11.9068
▁woven	-11.9068
▁appetizers	-11.9322
▁boarded	-11.9322
▁boating	-11.9322
▁boiled	-11.9322
▁brushed	-11.9322
▁bundt	-11.9322
▁bushel	-11.9322
▁california	-11.9322
▁canvas	-11.9322
▁cds	-11.9322
▁checked	-11.9322
▁chicago	-11.9322
▁chihuahua	-11.9322
▁dunkin	-11.9322
▁fairly	-11.9322
▁find	-11.9322
▁flavors	-11.9322
▁flys	-11.9322
▁gloomy	-11.9322
▁groceries	-11.9322
▁lunging	-11.9322
▁luxury	-11.9322
▁marks	-11.9322
▁mechanical	-11.9322
▁models	-11.9322
▁motes	-11.9322
▁nook	-11.9322
▁ox	-11.9322
▁paddock	-11.9322
▁poodle	-11.9322
▁receive	-11.9322
▁recreational	-11.9322
▁rescue	-11.9322
▁rhino	-11.9322
▁rig	-11.9322
▁rugby	-11.9322
▁samsung	-11.9322
▁slippers	-11.9322
▁spaces	-11.9322
▁streetlights	-11.9322
▁stylized	-11.9322
▁teens	-11.9322
▁think	-11.9322
▁twelve	-11.9322
▁twig	-11.9322
▁underside	-11.9322
▁worked	-11.9322
▁wrestling	-11.9322
▁wrist	-11.9322
▁backseat	-11.9581
▁bordered	-11.9581
▁broth	-11.9581
▁brownies	-11.9581
▁burgers	-11.9581
▁cables	-11.9581
▁captive	-11.9581
▁coaster	-11.9581
▁couples	-11.9581
▁cranes	-11.9581
▁era	-11.9581
▁every	-11.9581
▁famous	-11.9581
▁gathers	-11.9581
▁gesture	-11.9581
▁graduation	-11.9581
▁hides	-11.9581
▁highchair	-11.9581
▁instructor	-11.9581
▁learn	-11.9581
▁lightly	-11.9581
▁mcdonalds	-11.9581
▁misses	-11.9581
▁oatmeal	-11.9581
▁observe	-11.9581
▁operated	-11.9581
▁outdated	-11.9581
▁paneling	-11.9581
▁panoramic	-11.9581
▁pantry	-11.9581
▁perspective	-11.9581
▁playfully	-11.9581
▁recipe	-11.9581
▁retriever	-11.9581
▁ribbons	-11.9581
▁rink	-11.9581
▁salsa	-11.9581
▁spiral	-11.9581
▁structures	-11.9581
▁terrier	-11.9581
▁thomas	-11.9581
▁throughout	-11.9581
▁took	-11.9581
▁trailers	-11.9581
▁wavy	-11.9581
▁welcome	-11.9581
▁yacht	-11.9581
▁yield	-11.9581
▁arrive	-11.9848
▁beam	-11.9848
▁bone	-11.9848
▁buds	-11.9848
▁buried	-11.9848
▁claus	-11.9848
▁coaches	-11.9848
▁column	-11.9848
▁converted	-11.9848
▁croissants	-11.9848
▁dangling	-11.9848
▁deliver	-11.9848
▁demonstration	-11.9848
▁employee	-11.9848
▁families	-11.9848
▁forehead	-11.9848
▁gifts	-11.9848
▁graphic	-11.9848
▁handlebars	-11.9848
▁hockey	-11.9848
▁launch	-11.9848
▁maneuver	-11.9848
▁modified	-11.9848
▁nokia	-11.9848
▁ornamental	-11.9848
▁palace	-11.9848
▁parasail	-11.9848
▁patterns	-11.9848
▁paying	-11.9848
▁peels	-11.9848
▁pitches	-11.9848
▁prey	-11.9848
▁recently	-11.9848
▁roasting	-11.9848
▁sat	-11.9848
▁shears	-11.9848
▁spanish	-11.9848
▁streamers	-11.9848
▁swiss	-11.9848
▁toddlers	-11.9848
▁trotting	-11.9848
▁unoccupied	-11.9848
▁wedges	-11.9848
▁airliners	-12.0122
▁angel	-12.0122
▁boulders	-12.0122
▁caramel	-12.0122
▁combo	-12.0122
▁community	-12.0122
▁constructed	-12.0122
▁coral	-12.0122
▁costumed	-12.0122
▁dalmatian	-12.0122
▁difficult	-12.0122
▁drops	-12.0122
▁entire	-12.0122
▁eyeglasses	-12.0122
▁fireman	-12.0122
▁foamy	-12.0122
▁forrest	-12.0122
▁fours	-12.0122
▁glaze	-12.0122
▁hear	-12.0122
▁investigating	-12.0122
▁ironing	-12.0122
▁layers	-12.0122
▁least	-12.0122
▁less	-12.0122
▁lighter	-12.0122
▁lip	-12.0122
▁national	-12.0122
▁nightstands	-12.0122
▁nuzzling	-12.0122
▁pancake	-12.0122
▁peer	-12.0122
▁plat	-12.0122
▁pong	-12.0122
▁presenting	-12.0122
▁propellor	-12.0122
▁rapids	-12.0122
▁revealing	-12.0122
▁robes	-12.0122
▁sailors	-12.0122
▁sauerkraut	-12.0122
▁shark	-12.0122
▁snowman	-12.0122
▁soars	-12.0122
▁social	-12.0122
▁spreading	-12.0122
▁stalks	-12.0122
▁standup	-12.0122
▁strap	-12.0122
▁sweets	-12.0122
▁swimmers	-12.0122
▁tattoos	-12.0122
▁toss	-12.0122
▁triangle	-12.0122
▁tripod	-12.0122
▁tusk	-12.0122
▁twenty	-12.0122
▁varying	-12.0122
▁vines	-12.0122
▁w	-12.0122
▁abstract	-12.0404
▁age	-12.0404
▁alleyway	-12.0404
▁almonds	-12.0404
▁automobiles	-12.0404
▁backside	-12.0404
▁bake	-12.0404
▁batch	-12.0404
▁bitten	-12.0404
▁bushy	-12.0404
▁ceilings	-12.0404
▁centerpiece	-12.0404
▁century	-12.0404
▁cheeseburger	-12.0404
▁crazy	-12.0404
▁curbside	-12.0404
▁discussion	-12.0404
▁divider	-12.0404
▁flanked	-12.0404
▁follow	-12.0404
▁freely	-12.0404
▁frisby	-12.0404
▁frowning	-12.0404
▁function	-12.0404
▁gestures	-12.0404
▁goofy	-12.0404
▁grind	-12.0404
▁harley	-12.0404
▁height	-12.0404
▁intense	-12.0404
▁japan	-12.0404
▁loose	-12.0404
▁lunges	-12.0404
▁messing	-12.0404
▁moss	-12.0404
▁newborn	-12.0404
▁outhouse	-12.0404
▁pane	-12.0404
▁panting	-12.0404
▁patrol	-12.0404
▁pilots	-12.0404
▁ping	-12.0404
▁region	-12.0404
▁releasing	-12.0404
▁renovation	-12.0404
▁rowboat	-12.0404
▁scrambled	-12.0404
▁seasoned	-12.0404
▁stroll	-12.0404
▁sunflower	-12.0404
▁tips	-12.0404
▁tusked	-12.0404
▁unknown	-12.0404
▁uphill	-12.0404
▁wants	-12.0404
▁allowed	-12.0694
▁beads	-12.0694
▁beaks	-12.0694
▁boxed	-12.0694
▁brownie	-12.0694
▁bundles	-12.0694
▁butt	-12.0694
▁cabs	-12.0694
▁chatting	-12.0694
▁curls	-12.0694
▁dated	-12.0694
▁direct	-12.0694
▁discussing	-12.0694
▁establishment	-12.0694
▁fix	-12.0694
▁fixed	-12.0694
▁ford	-12.0694
▁grate	-12.0694
▁grow	-12.0694
▁handmade	-12.0694
▁headband	-12.0694
▁hitched	-12.0694
▁hour	-12.0694
▁humans	-12.0694
▁idly	-12.0694
▁juicer	-12.0694
▁labels	-12.0694
▁lavender	-12.0694
▁mane	-12.0694
▁microphones	-12.0694
▁miscellaneous	-12.0694
▁mothers	-12.0694
▁oclock	-12.0694
▁overalls	-12.0694
▁overturned	-12.0694
▁packaging	-12.0694
▁pelicans	-12.0694
▁performance	-12.0694
▁pinned	-12.0694
▁playful	-12.0694
▁projection	-12.0694
▁racers	-12.0694
▁rounded	-12.0694
▁seasoning	-12.0694
▁staff	-12.0694
▁sunrise	-12.0694
▁taco	-12.0694
▁trophy	-12.0694
▁wheat	-12.0694
▁whose	-12.0694
▁workspace	-12.0694
▁aprons	-12.0992
▁banners	-12.0992
▁bases	-12.0992
▁bento	-12.0992
▁bison	-12.0992
▁blur	-12.0992
▁cockpit	-12.0992
▁convertible	-12.0992
▁defensive	-12.0992
▁donkeys	-12.0992
▁dumpster	-12.0992
▁dvds	-12.0992
▁europe	-12.0992
▁feature	-12.0992
▁flatbread	-12.0992
▁flood	-12.0992
▁greet	-12.0992
▁hash	-12.0992
▁hurdle	-12.0992
▁india	-12.0992
▁inner	-12.0992
▁jewelry	-12.0992
▁l	-12.0992
▁last	-12.0992
▁lazy	-12.0992
▁leafless	-12.0992
▁lifeguard	-12.0992
▁locations	-12.0992
▁marsh	-12.0992
▁master	-12.0992
▁mickey	-12.0992
▁mouses	-12.0992
▁my	-12.0992
▁oversized	-12.0992
▁parasols	-12.0992
▁parsley	-12.0992
▁participating	-12.0992
▁peaceful	-12.0992
▁pointy	-12.0992
▁popular	-12.0992
▁purses	-12.0992
▁rearview	-12.0992
▁repairing	-12.0992
▁saddled	-12.0992
▁sneaker	-12.0992
▁spilled	-12.0992
▁spreads	-12.0992
▁starts	-12.0992
▁steal	-12.0992
▁submarine	-12.0992
▁symbols	-12.0992
▁tell	-12.0992
▁tvs	-12.0992
▁velvet	-12.0992
▁via	-12.0992
▁victorian	-12.0992
▁whine	-12.0992
▁windmill	-12.0992
▁wonderful	-12.0992
▁activity	-12.13
▁auditorium	-12.13
▁banks	-12.13
▁bearing	-12.13
▁bits	-12.13
▁canned	-12.13
▁casually	-12.13
▁cel	-12.13
▁celebratory	-12.13
▁chunks	-12.13
▁coal	-12.13
▁companion	-12.13
▁controlling	-12.13
▁davidson	-12.13
▁details	-12.13
▁diagonal	-12.13
▁directs	-12.13
▁discs	-12.13
▁dolly	-12.13
▁edges	-12.13
▁expired	-12.13
▁filming	-12.13
▁flipped	-12.13
▁floored	-12.13
▁folks	-12.13
▁gummy	-12.13
▁hamster	-12.13
▁handler	-12.13
▁hours	-12.13
▁kiteboard	-12.13
▁knitting	-12.13
▁lace	-12.13
▁legos	-12.13
▁lizard	-12.13
▁looked	-12.13
▁masks	-12.13
▁mason	-12.13
▁medieval	-12.13
▁melon	-12.13
▁movies	-12.13
▁nails	-12.13
▁nut	-12.13
▁overlook	-12.13
▁parachutes	-12.13
▁parlor	-12.13
▁prairie	-12.13
▁pudding	-12.13
▁repairs	-12.13
▁restaurants	-12.13
▁rooster	-12.13
▁roped	-12.13
▁salads	-12.13
▁shearing	-12.13
▁socializing	-12.13
▁sprayed	-12.13
▁stovetop	-12.13
▁swiftly	-12.13
▁tightly	-12.13
▁upscale	-12.13
▁vessel	-12.13
▁visor	-12.13
▁win	-12.13
▁yawning	-12.13
▁amenities	-12.1617
▁await	-12.1617
▁award	-12.1617
▁barricade	-12.1617
▁bedside	-12.1617
▁blind	-12.1617
▁booths	-12.1617
▁browsing	-12.1617
▁burgundy	-12.1617
▁bushels	-12.1617
▁capitol	-12.1617
▁celebrates	-12.1617
▁certain	-12.1617
▁collie	-12.1617
▁commuters	-12.1617
▁coupe	-12.1617
▁crochet	-12.1617
▁current	-12.1617
▁dash	-12.1617
▁fixes	-12.1617
▁friendly	-12.1617
▁homeless	-12.1617
▁horizontal	-12.1617
▁indicate	-12.1617
▁injured	-12.1617
▁jean	-12.1617
▁juvenile	-12.1617
▁leafs	-12.1617
▁license	-12.1617
▁livingroom	-12.1617
▁mark	-12.1617
▁mats	-12.1617
▁misty	-12.1617
▁navigating	-12.1617
▁neath	-12.1617
▁nibbling	-12.1617
▁normal	-12.1617
▁overview	-12.1617
▁peanuts	-12.1617
▁pigs	-12.1617
▁pins	-12.1617
▁planters	-12.1617
▁platforms	-12.1617
▁plums	-12.1617
▁preforming	-12.1617
▁profile	-12.1617
▁program	-12.1617
▁related	-12.1617
▁religious	-12.1617
▁scoop	-12.1617
▁seal	-12.1617
▁searching	-12.1617
▁sigh	-12.1617
▁sure	-12.1617
▁tanks	-12.1617
▁tells	-12.1617
▁tshirt	-12.1617
▁twigs	-12.1617
▁union	-12.1617
▁urn	-12.1617
▁ware	-12.1617
▁whip	-12.1617
▁wildflowers	-12.1617
▁adorn	-12.1945
▁angles	-12.1945
▁arabic	-12.1945
▁arranging	-12.1945
▁baker	-12.1945
▁beams	-12.1945
▁better	-12.1945
▁blown	-12.1945
▁bored	-12.1945
▁bows	-12.1945
▁butcher	-12.1945
▁cannot	-12.1945
▁chalk	-12.1945
▁cheek	-12.1945
▁chip	-12.1945
▁clip	-12.1945
▁cottage	-12.1945
▁credit	-12.1945
▁crop	-12.1945
▁cruising	-12.1945
▁dental	-12.1945
▁diet	-12.1945
▁dingy	-12.1945
▁dives	-12.1945
▁e	-12.1945
▁eatery	-12.1945
▁elevator	-12.1945
▁facial	-12.1945
▁flour	-12.1945
▁forehand	-12.1945
▁granola	-12.1945
▁hairdryer	-12.1945
▁handrail	-12.1945
▁headset	-12.1945
▁icebox	-12.1945
▁kitchenette	-12.1945
▁knot	-12.1945
▁laps	-12.1945
▁limbs	-12.1945
▁mantel	-12.1945
▁mattresses	-12.1945
▁maybe	-12.1945
▁minutes	-12.1945
▁monk	-12.1945
▁munching	-12.1945
▁needles	-12.1945
▁north	-12.1945
▁offers	-12.1945
▁patches	-12.1945
▁pear	-12.1945
▁plunger	-12.1945
▁protruding	-12.1945
▁raincoat	-12.1945
▁rooftop	-12.1945
▁sidelines	-12.1945
▁silhouetted	-12.1945
▁sodas	-12.1945
▁spanning	-12.1945
▁stately	-12.1945
▁tones	-12.1945
▁tricycle	-12.1945
▁u	-12.1945
▁university	-12.1945
▁usa	-12.1945
▁vent	-12.1945
▁vibrant	-12.1945
▁visiting	-12.1945
▁waking	-12.1945
▁wraps	-12.1945
▁arches	-12.2284
▁arid	-12.2284
▁atv	-12.2284
▁auto	-12.2284
▁badminton	-12.2284
▁billowing	-12.2284
▁breaded	-12.2284
▁burned	-12.2284
▁celebrate	-12.2284
▁charter	-12.2284
▁circles	-12.2284
▁cleaner	-12.2284
▁clydesdale	-12.2284
▁coconut	-12.2284
▁crash	-12.2284
▁crashed	-12.2284
▁crooked	-12.2284
▁crow	-12.2284
▁crying	-12.2284
▁date	-12.2284
▁denim	-12.2284
▁discarded	-12.2284
▁doily	-12.2284
▁dollar	-12.2284
▁eachother	-12.2284
▁east	-12.2284
▁eiffel	-12.2284
▁fellow	-12.2284
▁festive	-12.2284
▁flush	-12.2284
▁france	-12.2284
▁galley	-12.2284
▁glassware	-12.2284
▁guides	-12.2284
▁halfpipe	-12.2284
▁handling	-12.2284
▁handstand	-12.2284
▁hilltop	-12.2284
▁hip	-12.2284
▁hollywood	-12.2284
▁hugs	-12.2284
▁inspects	-12.2284
▁intensely	-12.2284
▁linked	-12.2284
▁loveseat	-12.2284
▁maple	-12.2284
▁matches	-12.2284
▁mount	-12.2284
▁numbered	-12.2284
▁oar	-12.2284
▁obstacles	-12.2284
▁occupied	-12.2284
▁ordering	-12.2284
▁panels	-12.2284
▁parmesan	-12.2284
▁pecking	-12.2284
▁petals	-12.2284
▁planted	-12.2284
▁pockets	-12.2284
▁pub	-12.2284
▁rared	-12.2284
▁sampling	-12.2284
▁shutters	-12.2284
▁slop	-12.2284
▁sprawled	-12.2284
▁surrounds	-12.2284
▁taste	-12.2284
▁tech	-12.2284
▁testing	-12.2284
▁toliet	-12.2284
▁unattended	-12.2284
▁vine	-12.2284
▁yak	-12.2284
▁adding	-12.2635
▁aiming	-12.2635
▁altitude	-12.2635
▁always	-12.2635
▁basement	-12.2635
▁blenders	-12.2635
▁bubbles	-12.2635
▁clause	-12.2635
▁combined	-12.2635
▁concept	-12.2635
▁concerned	-12.2635
▁converse	-12.2635
▁copper	-12.2635
▁dc	-12.2635
▁demonstrating	-12.2635
▁departing	-12.2635
▁detailed	-12.2635
▁ditch	-12.2635
▁duffel	-12.2635
▁embedded	-12.2635
▁facade	-12.2635
▁fighters	-12.2635
▁focal	-12.2635
▁francisco	-12.2635
▁gay	-12.2635
▁gazebo	-12.2635
▁gigantic	-12.2635
▁guards	-12.2635
▁hero	-12.2635
▁ivy	-12.2635
▁jacuzzi	-12.2635
▁lasagna	-12.2635
▁lids	-12.2635
▁luxurious	-12.2635
▁majestic	-12.2635
▁mature	-12.2635
▁medal	-12.2635
▁messages	-12.2635
▁missed	-12.2635
▁naps	-12.2635
▁observes	-12.2635
▁ordered	-12.2635
▁ostriches	-12.2635
▁penny	-12.2635
▁placemat	-12.2635
▁potty	-12.2635
▁princess	-12.2635
▁purchase	-12.2635
▁rat	-12.2635
▁razor	-12.2635
▁receiving	-12.2635
▁reigns	-12.2635
▁safe	-12.2635
▁sailor	-12.2635
▁scrub	-12.2635
▁seaweed	-12.2635
▁skeleton	-12.2635
▁slalom	-12.2635
▁sox	-12.2635
▁stationed	-12.2635
▁swimsuit	-12.2635
▁switch	-12.2635
▁vw	-12.2635
▁wades	-12.2635
▁waterskiing	-12.2635
▁web	-12.2635
▁whom	-12.2635
▁abundance	-12.2999
▁acting	-12.2999
▁africa	-12.2999
▁amazing	-12.2999
▁arrives	-12.2999
▁attachment	-12.2999
▁b	-12.2999
▁bark	-12.2999
▁battery	-12.2999
▁billboards	-12.2999
▁blvd	-12.2999
▁boulder	-12.2999
▁breaks	-12.2999
▁butterflies	-12.2999
▁chalkboard	-12.2999
▁clustered	-12.2999
▁cocktail	-12.2999
▁creamy	-12.2999
▁crumbs	-12.2999
▁demolished	-12.2999
▁domed	-12.2999
▁drawings	-12.2999
▁edible	-12.2999
▁elaborately	-12.2999
▁exercise	-12.2999
▁flash	-12.2999
▁goatee	-12.2999
▁grasslands	-12.2999
▁grows	-12.2999
▁heron	-12.2999
▁hey	-12.2999
▁holing	-12.2999
▁hungry	-12.2999
▁ipad	-12.2999
▁isnt	-12.2999
▁jesus	-12.2999
▁kayaks	-12.2999
▁launching	-12.2999
▁law	-12.2999
▁loads	-12.2999
▁lobster	-12.2999
▁marshmallows	-12.2999
▁member	-12.2999
▁moose	-12.2999
▁offering	-12.2999
▁onward	-12.2999
▁ornately	-12.2999
▁outlet	-12.2999
▁patient	-12.2999
▁protect	-12.2999
▁shakes	-12.2999
▁sheering	-12.2999
▁shipping	-12.2999
▁sings	-12.2999
▁slats	-12.2999
▁soil	-12.2999
▁southwest	-12.2999
▁sprays	-12.2999
▁starring	-12.2999
▁takeout	-12.2999
▁tater	-12.2999
▁teacher	-12.2999
▁thre	-12.2999
▁tilting	-12.2999
▁tinfoil	-12.2999
▁tipped	-12.2999
▁toll	-12.2999
▁ton	-12.2999
▁tots	-12.2999
▁transported	-12.2999
▁warmly	-12.2999
▁wife	-12.2999
▁windsurfer	-12.2999
▁years	-12.2999
▁youths	-12.2999
▁ages	-12.3376
▁alcoholic	-12.3376
▁angels	-12.3376
▁angled	-12.3376
▁antelopes	-12.3376
▁automatic	-12.3376
▁avocados	-12.3376
▁balding	-12.3376
▁beagle	-12.3376
▁blank	-12.3376
▁bomber	-12.3376
▁cliffs	-12.3376
▁cobble	-12.3376
▁cowboys	-12.3376
▁curtained	-12.3376
▁dispensers	-12.3376
▁distorted	-12.3376
▁doctors	-12.3376
▁emo	-12.3376
▁firefighters	-12.3376
▁fireworks	-12.3376
▁fisheye	-12.3376
▁flames	-12.3376
▁fuel	-12.3376
▁gazelles	-12.3376
▁goblets	-12.3376
▁gripping	-12.3376
▁guitars	-12.3376
▁hawaiian	-12.3376
▁incredible	-12.3376
▁jetliners	-12.3376
▁keeps	-12.3376
▁kiosk	-12.3376
▁lantern	-12.3376
▁lapel	-12.3376
▁lost	-12.3376
▁manual	-12.3376
▁marine	-12.3376
▁marking	-12.3376
▁memorabilia	-12.3376
▁merry	-12.3376
▁motorists	-12.3376
▁moved	-12.3376
▁netting	-12.3376
▁notebooks	-12.3376
▁orchard	-12.3376
▁organic	-12.3376
▁petted	-12.3376
▁pews	-12.3376
▁photographing	-12.3376
▁photography	-12.3376
▁photoshopped	-12.3376
▁pooh	-12.3376
▁possible	-12.3376
▁pristine	-12.3376
▁prominent	-12.3376
▁resemble	-12.3376
▁ridge	-12.3376
▁ripped	-12.3376
▁riverbank	-12.3376
▁rode	-12.3376
▁saucers	-12.3376
▁secluded	-12.3376
▁senior	-12.3376
▁serviced	-12.3376
▁skaters	-12.3376
▁sleeve	-12.3376
▁slender	-12.3376
▁snake	-12.3376
▁south	-12.3376
▁speckled	-12.3376
▁steaming	-12.3376
▁strung	-12.3376
▁tattooed	-12.3376
▁technology	-12.3376
▁temple	-12.3376
▁tons	-12.3376
▁triangular	-12.3376
▁turkeys	-12.3376
▁whats	-12.3376
▁why	-12.3376
▁winery	-12.3376
▁witha	-12.3376
▁woolly	-12.3376
▁additional	-12.3769
▁ago	-12.3769
▁allow	-12.3769
▁armchair	-12.3769
▁arrangements	-12.3769
▁attendant	-12.3769
▁attraction	-12.3769
▁av	-12.3769
▁bathrooms	-12.3769
▁blackberry	-12.3769
▁bmw	-12.3769
▁boulevard	-12.3769
▁canyon	-12.3769
▁chick	-12.3769
▁cob	-12.3769
▁completing	-12.3769
▁contain	-12.3769
▁cooker	-12.3769
▁cotton	-12.3769
▁crashes	-12.3769
▁creature	-12.3769
▁cuddled	-12.3769
▁desolate	-12.3769
▁dr	-12.3769
▁dreary	-12.3769
▁emerging	-12.3769
▁etc	-12.3769
▁external	-12.3769
▁feild	-12.3769
▁fired	-12.3769
▁given	-12.3769
▁guided	-12.3769
▁gulls	-12.3769
▁hearty	-12.3769
▁hips	-12.3769
▁infront	-12.3769
▁interested	-12.3769
▁jerseys	-12.3769
▁juggling	-12.3769
▁keeping	-12.3769
▁ladys	-12.3769
▁landscaping	-12.3769
▁leaking	-12.3769
▁lets	-12.3769
▁lipstick	-12.3769
▁lock	-12.3769
▁looms	-12.3769
▁mailbox	-12.3769
▁maintained	-12.3769
▁mangoes	-12.3769
▁melting	-12.3769
▁monkeys	-12.3769
▁nude	-12.3769
▁oars	-12.3769
▁paris	-12.3769
▁plans	-12.3769
▁pressed	-12.3769
▁prices	-12.3769
▁proudly	-12.3769
▁pumps	-12.3769
▁restored	-12.3769
▁rhinos	-12.3769
▁rounds	-12.3769
▁rumpled	-12.3769
▁scaffolding	-12.3769
▁seaside	-12.3769
▁seemingly	-12.3769
▁shopped	-12.3769
▁shut	-12.3769
▁sloped	-12.3769
▁spending	-12.3769
▁stairwell	-12.3769
▁sticky	-12.3769
▁strolling	-12.3769
▁study	-12.3769
▁suspenders	-12.3769
▁version	-12.3769
▁wildebeest	-12.3769
▁workshop	-12.3769
▁assembled	-12.4177
▁bandanna	-12.4177
▁based	-12.4177
▁batteries	-12.4177
▁binder	-12.4177
▁bloody	-12.4177
▁booze	-12.4177
▁buliding	-12.4177
▁bust	-12.4177
▁chase	-12.4177
▁chases	-12.4177
▁chubby	-12.4177
▁cigarettes	-12.4177
▁citys	-12.4177
▁competitor	-12.4177
▁concentrating	-12.4177
▁congregate	-12.4177
▁cot	-12.4177
▁countries	-12.4177
▁crafting	-12.4177
▁creating	-12.4177
▁cuddles	-12.4177
▁cuisine	-12.4177
▁cycling	-12.4177
▁days	-12.4177
▁dips	-12.4177
▁drum	-12.4177
▁elbow	-12.4177
▁eleven	-12.4177
▁faucets	-12.4177
▁favorite	-12.4177
▁fitted	-12.4177
▁fronts	-12.4177
▁gazes	-12.4177
▁gears	-12.4177
▁guns	-12.4177
▁handheld	-12.4177
▁heating	-12.4177
▁hedges	-12.4177
▁hoses	-12.4177
▁husband	-12.4177
▁international	-12.4177
▁jail	-12.4177
▁jogging	-12.4177
▁lazily	-12.4177
▁lecture	-12.4177
▁media	-12.4177
▁minimal	-12.4177
▁notepad	-12.4177
▁nowhere	-12.4177
▁overflowing	-12.4177
▁patties	-12.4177
▁perfectly	-12.4177
▁placid	-12.4177
▁poor	-12.4177
▁poorly	-12.4177
▁press	-12.4177
▁projected	-12.4177
▁protesters	-12.4177
▁punch	-12.4177
▁raisins	-12.4177
▁remodel	-12.4177
▁remodeling	-12.4177
▁reveals	-12.4177
▁ruler	-12.4177
▁rushing	-12.4177
▁scenes	-12.4177
▁shaker	-12.4177
▁shes	-12.4177
▁sipping	-12.4177
▁snap	-12.4177
▁source	-12.4177
▁spice	-12.4177
▁strikes	-12.4177
▁tagging	-12.4177
▁teammates	-12.4177
▁theatre	-12.4177
▁tights	-12.4177
▁tiling	-12.4177
▁toasting	-12.4177
▁topless	-12.4177
▁underwater	-12.4177
▁uneaten	-12.4177
▁unopened	-12.4177
▁venue	-12.4177
▁vertically	-12.4177
▁waiter	-12.4177
▁walker	-12.4177
▁want	-12.4177
▁weight	-12.4177
▁wreath	-12.4177
▁act	-12.4602
▁active	-12.4602
▁adorns	-12.4602
▁advertises	-12.4602
▁america	-12.4602
▁apparently	-12.4602
▁arts	-12.4602
▁attacking	-12.4602
▁avoid	-12.4602
▁baseballs	-12.4602
▁battle	-12.4602
▁bi	-12.4602
▁bikinis	-12.4602
▁bloom	-12.4602
▁bought	-12.4602
▁broke	-12.4602
▁brussel	-12.4602
▁bump	-12.4602
▁calmly	-12.4602
▁canes	-12.4602
▁caring	-12.4602
▁casts	-12.4602
▁cheering	-12.4602
▁chops	-12.4602
▁chute	-12.4602
▁cider	-12.4602
▁cities	-12.4602
▁clusters	-12.4602
▁collared	-12.4602
▁connecting	-12.4602
▁cracker	-12.4602
▁created	-12.4602
▁cuckoo	-12.4602
▁curl	-12.4602
▁dangerous	-12.4602
▁dell	-12.4602
▁drizzled	-12.4602
▁dug	-12.4602
▁dyed	-12.4602
▁eggplant	-12.4602
▁exposure	-12.4602
▁filing	-12.4602
▁filmed	-12.4602
▁filtered	-12.4602
▁firemen	-12.4602
▁flame	-12.4602
▁flatscreen	-12.4602
▁flavor	-12.4602
▁flow	-12.4602
▁flushing	-12.4602
▁gorilla	-12.4602
▁guarding	-12.4602
▁gymnasium	-12.4602
▁interact	-12.4602
▁isle	-12.4602
▁leftover	-12.4602
▁lincoln	-12.4602
▁manicured	-12.4602
▁march	-12.4602
▁mercedes	-12.4602
▁mint	-12.4602
▁mop	-12.4602
▁multitude	-12.4602
▁nets	-12.4602
▁obscured	-12.4602
▁onlooker	-12.4602
▁options	-12.4602
▁pacifier	-12.4602
▁pallet	-12.4602
▁passanger	-12.4602
▁pawing	-12.4602
▁penguins	-12.4602
▁plethora	-12.4602
▁pliers	-12.4602
▁potter	-12.4602
▁pound	-12.4602
▁privacy	-12.4602
▁protesting	-12.4602
▁puffy	-12.4602
▁rains	-12.4602
▁re	-12.4602
▁rectangle	-12.4602
▁ribs	-12.4602
▁rocket	-12.4602
▁rub	-12.4602
▁sales	-12.4602
▁sanctuary	-12.4602
▁sheared	-12.4602
▁shrub	-12.4602
▁skylight	-12.4602
▁slight	-12.4602
▁sons	-12.4602
▁stations	-12.4602
▁streaming	-12.4602
▁trade	-12.4602
▁tuna	-12.4602
▁un	-12.4602
▁ups	-12.4602
▁v	-12.4602
▁wade	-12.4602
▁wagons	-12.4602
▁wrappers	-12.4602
▁apparatus	-12.5047
▁ass	-12.5047
▁assisting	-12.5047
▁beets	-12.5047
▁boar	-12.5047
▁bowtie	-12.5047
▁bridges	-12.5047
▁broom	-12.5047
▁businessmen	-12.5047
▁campus	-12.5047
▁capture	-12.5047
▁cardinal	-12.5047
▁checkerboard	-12.5047
▁coastline	-12.5047
▁colt	-12.5047
▁confused	-12.5047
▁crisp	-12.5047
▁crowding	-12.5047
▁daffodils	-12.5047
▁damage	-12.5047
▁description	-12.5047
▁differently	-12.5047
▁dinosaur	-12.5047
▁draft	-12.5047
▁dressers	-12.5047
▁dries	-12.5047
▁drums	-12.5047
▁dummy	-12.5047
▁dying	-12.5047
▁earphones	-12.5047
▁easel	-12.5047
▁exhaust	-12.5047
▁express	-12.5047
▁fatigues	-12.5047
▁fifth	-12.5047
▁fills	-12.5047
▁flashing	-12.5047
▁globe	-12.5047
▁gull	-12.5047
▁hate	-12.5047
▁heat	-12.5047
▁highly	-12.5047
▁hound	-12.5047
▁humming	-12.5047
▁hygiene	-12.5047
▁ink	-12.5047
▁inspect	-12.5047
▁ith	-12.5047
▁joke	-12.5047
▁labrador	-12.5047
▁lowered	-12.5047
▁minivan	-12.5047
▁montage	-12.5047
▁mossy	-12.5047
▁motocross	-12.5047
▁motorcyle	-12.5047
▁novelty	-12.5047
▁once	-12.5047
▁ordinary	-12.5047
▁packet	-12.5047
▁partition	-12.5047
▁pavilion	-12.5047
▁pepperonis	-12.5047
▁picket	-12.5047
▁piercing	-12.5047
▁pizzeria	-12.5047
▁pleasant	-12.5047
▁plowing	-12.5047
▁plumbing	-12.5047
▁plus	-12.5047
▁poll	-12.5047
▁prints	-12.5047
▁scheme	-12.5047
▁seashore	-12.5047
▁shovel	-12.5047
▁signaling	-12.5047
▁skiies	-12.5047
▁sking	-12.5047
▁sliver	-12.5047
▁solitary	-12.5047
▁spider	-12.5047
▁spires	-12.5047
▁sprinkle	-12.5047
▁stain	-12.5047
▁stark	-12.5047
▁straps	-12.5047
▁streetcar	-12.5047
▁tale	-12.5047
▁teammate	-12.5047
▁temporary	-12.5047
▁texas	-12.5047
▁thermometer	-12.5047
▁unloaded	-12.5047
▁victory	-12.5047
▁wares	-12.5047
▁washes	-12.5047
▁whites	-12.5047
▁winning	-12.5047
▁alcove	-12.5512
▁alike	-12.5512
▁atm	-12.5512
▁australia	-12.5512
▁barred	-12.5512
▁basins	-12.5512
▁birdhouse	-12.5512
▁bookcases	-12.5512
▁broad	-12.5512
▁captures	-12.5512
▁centered	-12.5512
▁chocolates	-12.5512
▁clapping	-12.5512
▁clowns	-12.5512
▁clutching	-12.5512
▁common	-12.5512
▁components	-12.5512
▁congratulations	-12.5512
▁cordless	-12.5512
▁creme	-12.5512
▁cubes	-12.5512
▁depart	-12.5512
▁designated	-12.5512
▁destinations	-12.5512
▁detour	-12.5512
▁evil	-12.5512
▁ex	-12.5512
▁exchanging	-12.5512
▁feather	-12.5512
▁fondant	-12.5512
▁gesturing	-12.5512
▁glide	-12.5512
▁glue	-12.5512
▁gnar	-12.5512
▁goblet	-12.5512
▁grains	-12.5512
▁gutter	-12.5512
▁hairbrush	-12.5512
▁handlers	-12.5512
▁harnessed	-12.5512
▁judge	-12.5512
▁khaki	-12.5512
▁kisses	-12.5512
▁knifes	-12.5512
▁knobs	-12.5512
▁lava	-12.5512
▁lazing	-12.5512
▁lemonade	-12.5512
▁liberty	-12.5512
▁likes	-12.5512
▁lowers	-12.5512
▁melons	-12.5512
▁modest	-12.5512
▁motif	-12.5512
▁mounds	-12.5512
▁nail	-12.5512
▁needed	-12.5512
▁nun	-12.5512
▁nurse	-12.5512
▁nuzzle	-12.5512
▁occasion	-12.5512
▁outer	-12.5512
▁padded	-12.5512
▁panorama	-12.5512
▁pastel	-12.5512
▁pause	-12.5512
▁plug	-12.5512
▁portions	-12.5512
▁pouch	-12.5512
▁pretzels	-12.5512
▁provides	-12.5512
▁railings	-12.5512
▁rapid	-12.5512
▁records	-12.5512
▁reflect	-12.5512
▁reflections	-12.5512
▁remaining	-12.5512
▁resembles	-12.5512
▁rowboats	-12.5512
▁rubble	-12.5512
▁saw	-12.5512
▁scape	-12.5512
▁scout	-12.5512
▁servings	-12.5512
▁signed	-12.5512
▁signpost	-12.5512
▁sloping	-12.5512
▁smashed	-12.5512
▁speedboat	-12.5512
▁statute	-12.5512
▁stocking	-12.5512
▁straightening	-12.5512
▁surfaces	-12.5512
▁swamp	-12.5512
▁sweat	-12.5512
▁sweaters	-12.5512
▁teh	-12.5512
▁trek	-12.5512
▁trench	-12.5512
▁trimming	-12.5512
▁turf	-12.5512
▁unpaved	-12.5512
▁upcoming	-12.5512
▁upstairs	-12.5512
▁wars	-12.5512
▁whos	-12.5512
▁wilted	-12.5512
▁wineglass	-12.5512
▁yachts	-12.5512
▁actively	-12.6
▁adds	-12.6
▁aeroplane	-12.6
▁aid	-12.6
▁apartments	-12.6
▁apparel	-12.6
▁appetizer	-12.6
▁artist	-12.6
▁aside	-12.6
▁backsplash	-12.6
▁barb	-12.6
▁begging	-12.6
▁blossom	-12.6
▁blouse	-12.6
▁bridal	-12.6
▁brunette	-12.6
▁canopies	-12.6
▁cape	-12.6
▁carpeting	-12.6
▁cellar	-12.6
▁choose	-12.6
▁chopper	-12.6
▁clips	-12.6
▁closer	-12.6
▁colonial	-12.6
▁competitors	-12.6
▁confined	-12.6
▁conveyer	-12.6
▁cookware	-12.6
▁county	-12.6
▁cutout	-12.6
▁dawn	-12.6
▁decal	-12.6
▁decorates	-12.6
▁did	-12.6
▁disgusting	-12.6
▁ducklings	-12.6
▁dye	-12.6
▁eagerly	-12.6
▁effect	-12.6
▁eighteen	-12.6
▁extinguisher	-12.6
▁finishes	-12.6
▁firetrucks	-12.6
▁fixings	-12.6
▁floppy	-12.6
▁fold	-12.6
▁formations	-12.6
▁futuristic	-12.6
▁gap	-12.6
▁generated	-12.6
▁grated	-12.6
▁grips	-12.6
▁gum	-12.6
▁heated	-12.6
▁hipsters	-12.6
▁hope	-12.6
▁hump	-12.6
▁infield	-12.6
▁intent	-12.6
▁kayaking	-12.6
▁kiwis	-12.6
▁lagoon	-12.6
▁lingerie	-12.6
▁lions	-12.6
▁loaves	-12.6
▁ma	-12.6
▁merchandise	-12.6
▁nurses	-12.6
▁offspring	-12.6
▁olympics	-12.6
▁paints	-12.6
▁parchment	-12.6
▁parka	-12.6
▁patty	-12.6
▁perching	-12.6
▁pesto	-12.6
▁primitive	-12.6
▁rackett	-12.6
▁react	-12.6
▁reacts	-12.6
▁reclines	-12.6
▁rendering	-12.6
▁retrieving	-12.6
▁rivers	-12.6
▁roundabout	-12.6
▁rubs	-12.6
▁sample	-12.6
▁scooping	-12.6
▁score	-12.6
▁seasonings	-12.6
▁selecting	-12.6
▁shares	-12.6
▁sheer	-12.6
▁shepard	-12.6
▁shoppers	-12.6
▁sightseeing	-12.6
▁sip	-12.6
▁snowstorm	-12.6
▁sock	-12.6
▁song	-12.6
▁sony	-12.6
▁speak	-12.6
▁steers	-12.6
▁stock	-12.6
▁sweeping	-12.6
▁tattered	-12.6
▁thicket	-12.6
▁tinted	-12.6
▁tissues	-12.6
▁turban	-12.6
▁twisted	-12.6
▁uncut	-12.6
▁untidy	-12.6
▁vacation	-12.6
▁walnuts	-12.6
▁wiimote	-12.6
▁winnie	-12.6
▁youngster	-12.6
▁accent	-12.6513
▁access	-12.6513
▁accessible	-12.6513
▁add	-12.6513
▁adjust	-12.6513
▁airshow	-12.6513
▁ajar	-12.6513
▁antenna	-12.6513
▁appetizing	-12.6513
▁appointed	-12.6513
▁article	-12.6513
▁artistically	-12.6513
▁ate	-12.6513
▁attic	-12.6513
▁badge	-12.6513
▁badly	-12.6513
▁bathed	-12.6513
▁blended	-12.6513
▁bra	-12.6513
▁brake	-12.6513
▁bring	-12.6513
▁bringing	-12.6513
▁brings	-12.6513
▁build	-12.6513
▁capital	-12.6513
▁chat	-12.6513
▁chew	-12.6513
▁coastal	-12.6513
▁coins	-12.6513
▁confetti	-12.6513
▁convenience	-12.6513
▁corridor	-12.6513
▁create	-12.6513
▁crops	-12.6513
▁crouch	-12.6513
▁decals	-12.6513
▁disorganized	-12.6513
▁dollhouse	-12.6513
▁duffle	-12.6513
▁dunes	-12.6513
▁embrace	-12.6513
▁energy	-12.6513
▁entertaining	-12.6513
▁examine	-12.6513
▁excitedly	-12.6513
▁fathers	-12.6513
▁ferns	-12.6513
▁files	-12.6513
▁floss	-12.6513
▁font	-12.6513
▁forklift	-12.6513
▁forty	-12.6513
▁frolicking	-12.6513
▁gallery	-12.6513
▁gauges	-12.6513
▁geisha	-12.6513
▁grafitti	-12.6513
▁grape	-12.6513
▁guacamole	-12.6513
▁hanged	-12.6513
▁hatch	-12.6513
▁hauls	-12.6513
▁higher	-12.6513
▁hog	-12.6513
▁illustration	-12.6513
▁internet	-12.6513
▁inverted	-12.6513
▁jumper	-12.6513
▁kale	-12.6513
▁ladle	-12.6513
▁leashed	-12.6513
▁lick	-12.6513
▁llama	-12.6513
▁longboard	-12.6513
▁mad	-12.6513
▁magnetic	-12.6513
▁maneuvering	-12.6513
▁maneuvers	-12.6513
▁mayonnaise	-12.6513
▁miss	-12.6513
▁mohawk	-12.6513
▁movement	-12.6513
▁nike	-12.6513
▁oceans	-12.6513
▁officials	-12.6513
▁orchids	-12.6513
▁overstuffed	-12.6513
▁pace	-12.6513
▁peek	-12.6513
▁penned	-12.6513
▁polaroid	-12.6513
▁polished	-12.6513
▁pretzel	-12.6513
▁procession	-12.6513
▁proper	-12.6513
▁protecting	-12.6513
▁reddish	-12.6513
▁remove	-12.6513
▁rested	-12.6513
▁rollerblading	-12.6513
▁sack	-12.6513
▁scary	-12.6513
▁separating	-12.6513
▁seperate	-12.6513
▁shoot	-12.6513
▁shorn	-12.6513
▁silhouettes	-12.6513
▁spilling	-12.6513
▁spotless	-12.6513
▁stories	-12.6513
▁sugared	-12.6513
▁suited	-12.6513
▁summit	-12.6513
▁supply	-12.6513
▁surfboarder	-12.6513
▁target	-12.6513
▁textured	-12.6513
▁tins	-12.6513
▁titled	-12.6513
▁tokyo	-12.6513
▁touring	-12.6513
▁towns	-12.6513
▁tractors	-12.6513
▁traveler	-12.6513
▁treed	-12.6513
▁uk	-12.6513
▁underpass	-12.6513
▁unhappy	-12.6513
▁verdant	-12.6513
▁visit	-12.6513
▁walkers	-12.6513
▁watery	-12.6513
▁width	-12.6513
▁wineglasses	-12.6513
▁wrecked	-12.6513
▁wrench	-12.6513
▁yoga	-12.6513
▁alaska	-12.7054
▁aligned	-12.7054
▁alot	-12.7054
▁angeles	-12.7054
▁ankle	-12.7054
▁attendants	-12.7054
▁atvs	-12.7054
▁bale	-12.7054
▁bales	-12.7054
▁barking	-12.7054
▁batman	-12.7054
▁birth	-12.7054
▁blossoms	-12.7054
▁breed	-12.7054
▁bucking	-12.7054
▁buggies	-12.7054
▁cappuccino	-12.7054
▁chairlift	-12.7054
▁charge	-12.7054
▁chests	-12.7054
▁cobbled	-12.7054
▁cock	-12.7054
▁coloring	-12.7054
▁conditions	-12.7054
▁crack	-12.7054
▁crammed	-12.7054
▁cranberry	-12.7054
▁daily	-12.7054
▁decent	-12.7054
▁doubledecker	-12.7054
▁dripping	-12.7054
▁efficiency	-12.7054
▁elegantly	-12.7054
▁embankment	-12.7054
▁ewe	-12.7054
▁explaining	-12.7054
▁fairy	-12.7054
▁feast	-12.7054
▁feel	-12.7054
▁fir	-12.7054
▁flamingo	-12.7054
▁flops	-12.7054
▁fo	-12.7054
▁fox	-12.7054
▁ghost	-12.7054
▁glaring	-12.7054
▁government	-12.7054
▁gps	-12.7054
▁greek	-12.7054
▁grins	-12.7054
▁grounds	-12.7054
▁growth	-12.7054
▁halter	-12.7054
▁halved	-12.7054
▁harry	-12.7054
▁haul	-12.7054
▁herder	-12.7054
▁honda	-12.7054
▁hula	-12.7054
▁hunting	-12.7054
▁implements	-12.7054
▁intersecting	-12.7054
▁iwth	-12.7054
▁jalapenos	-12.7054
▁jetway	-12.7054
▁korean	-12.7054
▁la	-12.7054
▁latest	-12.7054
▁lavatory	-12.7054
▁lavish	-12.7054
▁los	-12.7054
▁losing	-12.7054
▁lotion	-12.7054
▁lowering	-12.7054
▁lucky	-12.7054
▁luggages	-12.7054
▁lunchbox	-12.7054
▁magnifying	-12.7054
▁manner	-12.7054
▁mario	-12.7054
▁micro	-12.7054
▁mist	-12.7054
▁monorail	-12.7054
▁mounting	-12.7054
▁naval	-12.7054
▁never	-12.7054
▁nick	-12.7054
▁oats	-12.7054
▁observed	-12.7054
▁orders	-12.7054
▁orioles	-12.7054
▁overweight	-12.7054
▁pages	-12.7054
▁paid	-12.7054
▁parasailers	-12.7054
▁peaks	-12.7054
▁pedal	-12.7054
▁per	-12.7054
▁performers	-12.7054
▁perhaps	-12.7054
▁photographers	-12.7054
▁pre	-12.7054
▁protected	-12.7054
▁protection	-12.7054
▁proud	-12.7054
▁puzzle	-12.7054
▁racetrack	-12.7054
▁rafts	-12.7054
▁rag	-12.7054
▁raspberry	-12.7054
▁release	-12.7054
▁rifle	-12.7054
▁rotting	-12.7054
▁russian	-12.7054
▁samples	-12.7054
▁scarves	-12.7054
▁seaplane	-12.7054
▁session	-12.7054
▁shared	-12.7054
▁sheered	-12.7054
▁shield	-12.7054
▁shift	-12.7054
▁skewers	-12.7054
▁skillfully	-12.7054
▁slatted	-12.7054
▁snowmobile	-12.7054
▁soaking	-12.7054
▁somebodys	-12.7054
▁specialty	-12.7054
▁spectator	-12.7054
▁sponge	-12.7054
▁stork	-12.7054
▁straddling	-12.7054
▁tangled	-12.7054
▁tar	-12.7054
▁telephones	-12.7054
▁temperature	-12.7054
▁test	-12.7054
▁thee	-12.7054
▁timer	-12.7054
▁tortillas	-12.7054
▁tuck	-12.7054
▁uncovered	-12.7054
▁unison	-12.7054
▁videogame	-12.7054
▁wipes	-12.7054
▁yamaha	-12.7054
▁zombie	-12.7054
▁aa	-12.7625
▁accented	-12.7625
▁allowing	-12.7625
▁alter	-12.7625
▁anything	-12.7625
▁armed	-12.7625
▁armor	-12.7625
▁attended	-12.7625
▁audio	-12.7625
▁backward	-12.7625
▁bead	-12.7625
▁bee	-12.7625
▁bills	-12.7625
▁bodies	-12.7625
▁bodysuit	-12.7625
▁boiling	-12.7625
▁braces	-12.7625
▁bruised	-12.7625
▁brushy	-12.7625
▁bud	-12.7625
▁buoy	-12.7625
▁cameraman	-12.7625
▁camo	-12.7625
▁campaign	-12.7625
▁cantaloupe	-12.7625
▁chaise	-12.7625
▁chess	-12.7625
▁chimney	-12.7625
▁claws	-12.7625
▁climate	-12.7625
▁clump	-12.7625
▁conditioner	-12.7625
▁contemplating	-12.7625
▁continental	-12.7625
▁crock	-12.7625
▁crows	-12.7625
▁cube	-12.7625
▁danger	-12.7625
▁darkness	-12.7625
▁defaced	-12.7625
▁describing	-12.7625
▁dew	-12.7625
▁dial	-12.7625
▁dodgers	-12.7625
▁drags	-12.7625
▁dropped	-12.7625
▁eastern	-12.7625
▁emblem	-12.7625
▁engineer	-12.7625
▁entrees	-12.7625
▁espresso	-12.7625
▁fastened	-12.7625
▁filth	-12.7625
▁firefighter	-12.7625
▁fits	-12.7625
▁forefront	-12.7625
▁fourth	-12.7625
▁freez	-12.7625
▁giants	-12.7625
▁god	-12.7625
▁google	-12.7625
▁graveyard	-12.7625
▁greasy	-12.7625
▁grinning	-12.7625
▁guest	-12.7625
▁hardware	-12.7625
▁hazard	-12.7625
▁herb	-12.7625
▁hikers	-12.7625
▁host	-12.7625
▁hotels	-12.7625
▁ina	-12.7625
▁insect	-12.7625
▁k	-12.7625
▁keeper	-12.7625
▁knights	-12.7625
▁limo	-12.7625
▁loop	-12.7625
▁mainly	-12.7625
▁marbled	-12.7625
▁marinara	-12.7625
▁menus	-12.7625
▁mule	-12.7625
▁muscles	-12.7625
▁nailed	-12.7625
▁nasa	-12.7625
▁newer	-12.7625
▁nunchuck	-12.7625
▁omelette	-12.7625
▁opponents	-12.7625
▁organ	-12.7625
▁our	-12.7625
▁pacific	-12.7625
▁packets	-12.7625
▁panini	-12.7625
▁peripherals	-12.7625
▁pirates	-12.7625
▁please	-12.7625
▁plowed	-12.7625
▁popcorn	-12.7625
▁pops	-12.7625
▁pretends	-12.7625
▁pyramid	-12.7625
▁rare	-12.7625
▁returned	-12.7625
▁reveal	-12.7625
▁ripened	-12.7625
▁ruins	-12.7625
▁sands	-12.7625
▁satellite	-12.7625
▁screened	-12.7625
▁sealed	-12.7625
▁sectioned	-12.7625
▁sees	-12.7625
▁showcase	-12.7625
▁showcasing	-12.7625
▁siding	-12.7625
▁skirts	-12.7625
▁skying	-12.7625
▁slim	-12.7625
▁sloppy	-12.7625
▁smokes	-12.7625
▁sniff	-12.7625
▁solo	-12.7625
▁spa	-12.7625
▁spins	-12.7625
▁stables	-12.7625
▁steeples	-12.7625
▁storefronts	-12.7625
▁strainer	-12.7625
▁streams	-12.7625
▁sucking	-12.7625
▁surgical	-12.7625
▁terrace	-12.7625
▁toe	-12.7625
▁toes	-12.7625
▁tubs	-12.7625
▁tupperware	-12.7625
▁turnips	-12.7625
▁tuxedos	-12.7625
▁unload	-12.7625
▁unpacked	-12.7625
▁vegtables	-12.7625
▁violin	-12.7625
▁virtual	-12.7625
▁volkswagon	-12.7625
▁waterside	-12.7625
▁went	-12.7625
▁whale	-12.7625
▁wildebeests	-12.7625
▁wildly	-12.7625
▁windmills	-12.7625
▁wintery	-12.7625
▁witting	-12.7625
▁wolf	-12.7625
▁x	-12.7625
▁ale	-12.8231
▁alligator	-12.8231
▁anime	-12.8231
▁armoire	-12.8231
▁artisan	-12.8231
▁attaching	-12.8231
▁bartender	-12.8231
▁battered	-12.8231
▁bees	-12.8231
▁blending	-12.8231
▁brother	-12.8231
▁bunched	-12.8231
▁buttered	-12.8231
▁c	-12.8231
▁carvings	-12.8231
▁cash	-12.8231
▁cgi	-12.8231
▁charcoal	-12.8231
▁chased	-12.8231
▁chipped	-12.8231
▁citizens	-12.8231
▁comical	-12.8231
▁congested	-12.8231
▁consumed	-12.8231
▁coverings	-12.8231
▁creative	-12.8231
▁d	-12.8231
▁dachshund	-12.8231
▁dancers	-12.8231
▁de	-12.8231
▁delivered	-12.8231
▁diesel	-12.8231
▁dig	-12.8231
▁disney	-12.8231
▁disposable	-12.8231
▁dividers	-12.8231
▁doctor	-12.8231
▁dolphin	-12.8231
▁drab	-12.8231
▁draws	-12.8231
▁drift	-12.8231
▁duct	-12.8231
▁due	-12.8231
▁dumping	-12.8231
▁dune	-12.8231
▁dusted	-12.8231
▁easily	-12.8231
▁emitting	-12.8231
▁enforcement	-12.8231
▁enthusiastically	-12.8231
▁ethnic	-12.8231
▁ever	-12.8231
▁exercising	-12.8231
▁exhibition	-12.8231
▁expensive	-12.8231
▁flapping	-12.8231
▁flea	-12.8231
▁folder	-12.8231
▁foodstuffs	-12.8231
▁fudge	-12.8231
▁gadget	-12.8231
▁gilded	-12.8231
▁glare	-12.8231
▁gloved	-12.8231
▁gnome	-12.8231
▁goodies	-12.8231
▁gorgeous	-12.8231
▁grasping	-12.8231
▁grounded	-12.8231
▁hairless	-12.8231
▁handful	-12.8231
▁health	-12.8231
▁hers	-12.8231
▁hike	-12.8231
▁hiker	-12.8231
▁holidays	-12.8231
▁ii	-12.8231
▁inclosure	-12.8231
▁indicator	-12.8231
▁inn	-12.8231
▁inspired	-12.8231
▁interest	-12.8231
▁inviting	-12.8231
▁juicy	-12.8231
▁junction	-12.8231
▁landscaped	-12.8231
▁lasso	-12.8231
▁lilies	-12.8231
▁mayo	-12.8231
▁mingle	-12.8231
▁minor	-12.8231
▁mm	-12.8231
▁mousepad	-12.8231
▁muzzle	-12.8231
▁novel	-12.8231
▁occupy	-12.8231
▁ollie	-12.8231
▁outskirts	-12.8231
▁pandas	-12.8231
▁paperback	-12.8231
▁pea	-12.8231
▁peddling	-12.8231
▁period	-12.8231
▁picker	-12.8231
▁planks	-12.8231
▁ponytail	-12.8231
▁postcard	-12.8231
▁prep	-12.8231
▁priest	-12.8231
▁ray	-12.8231
▁receipt	-12.8231
▁register	-12.8231
▁relaxed	-12.8231
▁resembling	-12.8231
▁retrieve	-12.8231
▁rich	-12.8231
▁rugged	-12.8231
▁season	-12.8231
▁selections	-12.8231
▁shadowy	-12.8231
▁shelve	-12.8231
▁shoots	-12.8231
▁shorter	-12.8231
▁shredding	-12.8231
▁silo	-12.8231
▁slacks	-12.8231
▁sleeves	-12.8231
▁snout	-12.8231
▁socialize	-12.8231
▁soon	-12.8231
▁species	-12.8231
▁spool	-12.8231
▁stemmed	-12.8231
▁stood	-12.8231
▁stucco	-12.8231
▁swampy	-12.8231
▁switching	-12.8231
▁tacos	-12.8231
▁tangerine	-12.8231
▁teenaged	-12.8231
▁tend	-12.8231
▁thai	-12.8231
▁thatched	-12.8231
▁tot	-12.8231
▁totally	-12.8231
▁trained	-12.8231
▁trolleys	-12.8231
▁trophies	-12.8231
▁tubes	-12.8231
▁typewriter	-12.8231
▁ump	-12.8231
▁undergoing	-12.8231
▁updated	-12.8231
▁urns	-12.8231
▁usb	-12.8231
▁vessels	-12.8231
▁videos	-12.8231
▁waitress	-12.8231
▁wedged	-12.8231
▁wheeling	-12.8231
▁acrobatic	-12.8877
▁actual	-12.8877
▁aims	-12.8877
▁alien	-12.8877
▁amounts	-12.8877
▁ana	-12.8877
▁anticipating	-12.8877
▁anyone	-12.8877
▁arrived	-12.8877
▁attentive	-12.8877
▁autographs	-12.8877
▁awkward	-12.8877
▁backing	-12.8877
▁bakers	-12.8877
▁balconies	-12.8877
▁banister	-12.8877
▁barricades	-12.8877
▁bicycling	-12.8877
▁bookstore	-12.8877
▁bot	-12.8877
▁bounces	-12.8877
▁breeze	-12.8877
▁bulb	-12.8877
▁bulding	-12.8877
▁bunting	-12.8877
▁butting	-12.8877
▁bystanders	-12.8877
▁captain	-12.8877
▁chevrolet	-12.8877
▁chicks	-12.8877
▁chilli	-12.8877
▁chunk	-12.8877
▁collecting	-12.8877
▁combs	-12.8877
▁comfy	-12.8877
▁compute	-12.8877
▁condiment	-12.8877
▁congregating	-12.8877
▁contained	-12.8877
▁corned	-12.8877
▁cresting	-12.8877
▁crispy	-12.8877
▁crushed	-12.8877
▁cuddle	-12.8877
▁curry	-12.8877
▁curving	-12.8877
▁cushioned	-12.8877
▁daughters	-12.8877
▁dealership	-12.8877
▁derby	-12.8877
▁descends	-12.8877
▁detail	-12.8877
▁disrepair	-12.8877
▁dj	-12.8877
▁dramatic	-12.8877
▁earrings	-12.8877
▁embroidered	-12.8877
▁enters	-12.8877
▁entryway	-12.8877
▁erected	-12.8877
▁estate	-12.8877
▁evergreens	-12.8877
▁fabrics	-12.8877
▁fashionable	-12.8877
▁feta	-12.8877
▁flickr	-12.8877
▁flyers	-12.8877
▁focusing	-12.8877
▁fountains	-12.8877
▁freeze	-12.8877
▁fronted	-12.8877
▁future	-12.8877
▁geometric	-12.8877
▁girafee	-12.8877
▁gotten	-12.8877
▁grave	-12.8877
▁griddle	-12.8877
▁handwritten	-12.8877
▁hangings	-12.8877
▁heel	-12.8877
▁heights	-12.8877
▁huts	-12.8877
▁hydrogen	-12.8877
▁impressive	-12.8877
▁instruction	-12.8877
▁involved	-12.8877
▁joined	-12.8877
▁kangaroo	-12.8877
▁knight	-12.8877
▁knob	-12.8877
▁laces	-12.8877
▁longhorn	-12.8877
▁means	-12.8877
▁meatloaf	-12.8877
▁milkshake	-12.8877
▁mit	-12.8877
▁monks	-12.8877
▁mountaintop	-12.8877
▁muscular	-12.8877
▁nursery	-12.8877
▁often	-12.8877
▁orderly	-12.8877
▁origami	-12.8877
▁outfielder	-12.8877
▁overhang	-12.8877
▁pail	-12.8877
▁parasailer	-12.8877
▁particular	-12.8877
▁passport	-12.8877
▁patchwork	-12.8877
▁pausing	-12.8877
▁penn	-12.8877
▁pics	-12.8877
▁pontoon	-12.8877
▁preserve	-12.8877
▁presses	-12.8877
▁pretend	-12.8877
▁proceed	-12.8877
▁proximity	-12.8877
▁punk	-12.8877
▁puppet	-12.8877
▁reader	-12.8877
▁readying	-12.8877
▁recorder	-12.8877
▁roofed	-12.8877
▁roofs	-12.8877
▁seriously	-12.8877
▁sex	-12.8877
▁skii	-12.8877
▁skinned	-12.8877
▁sling	-12.8877
▁smeared	-12.8877
▁smooth	-12.8877
▁snoozing	-12.8877
▁solid	-12.8877
▁spare	-12.8877
▁spelled	-12.8877
▁splashes	-12.8877
▁spout	-12.8877
▁springs	-12.8877
▁strangely	-12.8877
▁sugary	-12.8877
▁swimmer	-12.8877
▁systems	-12.8877
▁teaches	-12.8877
▁teddybear	-12.8877
▁territory	-12.8877
▁thames	-12.8877
▁theyre	-12.8877
▁thinking	-12.8877
▁toiled	-12.8877
▁toyota	-12.8877
▁trainers	-12.8877
▁turbulent	-12.8877
▁twp	-12.8877
▁units	-12.8877
▁unpeeled	-12.8877
▁upholstered	-12.8877
▁vein	-12.8877
▁wanders	-12.8877
▁wanting	-12.8877
▁writes	-12.8877
▁zones	-12.8877
▁accordion	-12.9567
▁actors	-12.9567
▁address	-12.9567
▁admire	-12.9567
▁ads	-12.9567
▁adventure	-12.9567
▁affectionate	-12.9567
▁allows	-12.9567
▁aloft	-12.9567
▁amateur	-12.9567
▁ankles	-12.9567
▁ans	-12.9567
▁anticipation	-12.9567
▁appropriate	-12.9567
▁arcade	-12.9567
▁articles	-12.9567
▁attend	-12.9567
▁attentively	-12.9567
▁australian	-12.9567
▁automated	-12.9567
▁baguette	-12.9567
▁bathrobe	-12.9567
▁blinders	-12.9567
▁blooms	-12.9567
▁broccolli	-12.9567
▁brought	-12.9567
▁buddha	-12.9567
▁bulbs	-12.9567
▁butts	-12.9567
▁calls	-12.9567
▁cay	-12.9567
▁cents	-12.9567
▁checker	-12.9567
▁choices	-12.9567
▁choosing	-12.9567
▁chugs	-12.9567
▁cilantro	-12.9567
▁cleans	-12.9567
▁clipped	-12.9567
▁coconuts	-12.9567
▁confusing	-12.9567
▁connect	-12.9567
▁connection	-12.9567
▁content	-12.9567
▁contrails	-12.9567
▁contrasting	-12.9567
▁coo	-12.9567
▁coolers	-12.9567
▁corona	-12.9567
▁crabs	-12.9567
▁creation	-12.9567
▁crowns	-12.9567
▁crumbling	-12.9567
▁custard	-12.9567
▁damp	-12.9567
▁dear	-12.9567
▁dinette	-12.9567
▁dodge	-12.9567
▁doggie	-12.9567
▁doggy	-12.9567
▁draw	-12.9567
▁dumplings	-12.9567
▁duplicate	-12.9567
▁dusting	-12.9567
▁duty	-12.9567
▁eclectic	-12.9567
▁egret	-12.9567
▁empire	-12.9567
▁en	-12.9567
▁exciting	-12.9567
▁feasting	-12.9567
▁forming	-12.9567
▁further	-12.9567
▁gardening	-12.9567
▁gaze	-12.9567
▁glassed	-12.9567
▁greyhound	-12.9567
▁handsome	-12.9567
▁humongous	-12.9567
▁humorous	-12.9567
▁icecream	-12.9567
▁im	-12.9567
▁imac	-12.9567
▁inches	-12.9567
▁interviewed	-12.9567
▁intricately	-12.9567
▁ivory	-12.9567
▁jackson	-12.9567
▁jugs	-12.9567
▁lesson	-12.9567
▁links	-12.9567
▁longer	-12.9567
▁lufthansa	-12.9567
▁lumber	-12.9567
▁magnet	-12.9567
▁mango	-12.9567
▁marshy	-12.9567
▁messed	-12.9567
▁navigate	-12.9567
▁navigates	-12.9567
▁nears	-12.9567
▁necessary	-12.9567
▁necessities	-12.9567
▁nutritious	-12.9567
▁nuzzles	-12.9567
▁oblong	-12.9567
▁operates	-12.9567
▁outfitted	-12.9567
▁overhand	-12.9567
▁panties	-12.9567
▁parakeet	-12.9567
▁pared	-12.9567
▁parliament	-12.9567
▁pedals	-12.9567
▁pendulum	-12.9567
▁performed	-12.9567
▁perpendicular	-12.9567
▁plastered	-12.9567
▁plot	-12.9567
▁pm	-12.9567
▁potential	-12.9567
▁powdery	-12.9567
▁proceeds	-12.9567
▁providing	-12.9567
▁purchased	-12.9567
▁rental	-12.9567
▁repaired	-12.9567
▁replaced	-12.9567
▁respective	-12.9567
▁restaraunt	-12.9567
▁rhinoceros	-12.9567
▁rodent	-12.9567
▁rods	-12.9567
▁roosters	-12.9567
▁roots	-12.9567
▁rowers	-12.9567
▁saddles	-12.9567
▁satin	-12.9567
▁scallops	-12.9567
▁search	-12.9567
▁sedan	-12.9567
▁shakers	-12.9567
▁sheepdog	-12.9567
▁shinning	-12.9567
▁shrine	-12.9567
▁simply	-12.9567
▁sister	-12.9567
▁skulls	-12.9567
▁slider	-12.9567
▁snapshot	-12.9567
▁snowshoes	-12.9567
▁snuggles	-12.9567
▁sorting	-12.9567
▁sparkling	-12.9567
▁spiky	-12.9567
▁stamp	-12.9567
▁stilts	-12.9567
▁stirred	-12.9567
▁stony	-12.9567
▁straws	-12.9567
▁strolls	-12.9567
▁struggling	-12.9567
▁sumo	-12.9567
▁sunbathers	-12.9567
▁surprise	-12.9567
▁tasks	-12.9567
▁teacup	-12.9567
▁thermos	-12.9567
▁thought	-12.9567
▁tiara	-12.9567
▁toothpicks	-12.9567
▁topper	-12.9567
▁tote	-12.9567
▁tours	-12.9567
▁trinkets	-12.9567
▁tundra	-12.9567
▁unbuttoned	-12.9567
▁unkempt	-12.9567
▁unripened	-12.9567
▁vaulted	-12.9567
▁vigorously	-12.9567
▁vultures	-12.9567
▁warmer	-12.9567
▁weed	-12.9567
▁wheelbarrow	-12.9567
▁winged	-12.9567
▁wrote	-12.9567
▁wtih	-12.9567
▁yelling	-12.9567
▁actually	-13.0308
▁affection	-13.0308
▁aimed	-13.0308
▁album	-13.0308
▁almond	-13.0308
▁ample	-13.0308
▁anchor	-13.0308
▁angrily	-13.0308
▁artfully	-13.0308
▁ashore	-13.0308
▁awkwardly	-13.0308
▁bangs	-13.0308
▁baseline	-13.0308
▁become	-13.0308
▁belongs	-13.0308
▁blend	-13.0308
▁bones	-13.0308
▁born	-13.0308
▁bound	-13.0308
▁bovine	-13.0308
▁bristles	-13.0308
▁buidling	-13.0308
▁bulldozer	-13.0308
▁bumping	-13.0308
▁calling	-13.0308
▁calzone	-13.0308
▁camouflaged	-13.0308
▁campers	-13.0308
▁carnations	-13.0308
▁catering	-13.0308
▁causing	-13.0308
▁ceremonial	-13.0308
▁changed	-13.0308
▁closest	-13.0308
▁closing	-13.0308
▁clothesline	-13.0308
▁co	-13.0308
▁cobblestones	-13.0308
▁comic	-13.0308
▁concentrates	-13.0308
▁condition	-13.0308
▁consuming	-13.0308
▁copy	-13.0308
▁cork	-13.0308
▁cropped	-13.0308
▁cruises	-13.0308
▁cubby	-13.0308
▁danish	-13.0308
▁deal	-13.0308
▁deciding	-13.0308
▁delicate	-13.0308
▁delivers	-13.0308
▁devil	-13.0308
▁dipped	-13.0308
▁dirtbike	-13.0308
▁drenched	-13.0308
▁ducky	-13.0308
▁elvis	-13.0308
▁engage	-13.0308
▁envelope	-13.0308
▁erect	-13.0308
▁exactly	-13.0308
▁exchange	-13.0308
▁exploring	-13.0308
▁f	-13.0308
▁falcon	-13.0308
▁fetch	-13.0308
▁finely	-13.0308
▁fires	-13.0308
▁fitting	-13.0308
▁flashlight	-13.0308
▁fliers	-13.0308
▁florida	-13.0308
▁footed	-13.0308
▁footprints	-13.0308
▁foyer	-13.0308
▁fridges	-13.0308
▁frisbie	-13.0308
▁frothy	-13.0308
▁g	-13.0308
▁garland	-13.0308
▁garment	-13.0308
▁gently	-13.0308
▁giraffee	-13.0308
▁graffitied	-13.0308
▁gras	-13.0308
▁grating	-13.0308
▁greenish	-13.0308
▁gross	-13.0308
▁handlebar	-13.0308
▁harnesses	-13.0308
▁headlight	-13.0308
▁hoping	-13.0308
▁hover	-13.0308
▁identification	-13.0308
▁illuminate	-13.0308
▁john	-13.0308
▁join	-13.0308
▁kilt	-13.0308
▁kimono	-13.0308
▁ladders	-13.0308
▁lanterns	-13.0308
▁leisurely	-13.0308
▁linoleum	-13.0308
▁listen	-13.0308
▁locks	-13.0308
▁lookers	-13.0308
▁loving	-13.0308
▁mansion	-13.0308
▁mare	-13.0308
▁mast	-13.0308
▁mates	-13.0308
▁measure	-13.0308
▁mismatched	-13.0308
▁momma	-13.0308
▁motorola	-13.0308
▁mouthwash	-13.0308
▁mules	-13.0308
▁munches	-13.0308
▁musician	-13.0308
▁mustang	-13.0308
▁obelisk	-13.0308
▁observation	-13.0308
▁offered	-13.0308
▁overloaded	-13.0308
▁overly	-13.0308
▁p	-13.0308
▁parakeets	-13.0308
▁paraphernalia	-13.0308
▁parasails	-13.0308
▁partner	-13.0308
▁pate	-13.0308
▁peopel	-13.0308
▁piers	-13.0308
▁pills	-13.0308
▁prison	-13.0308
▁prize	-13.0308
▁propping	-13.0308
▁props	-13.0308
▁rapidly	-13.0308
▁rays	-13.0308
▁reeds	-13.0308
▁remarkable	-13.0308
▁removes	-13.0308
▁respected	-13.0308
▁resturant	-13.0308
▁rims	-13.0308
▁rue	-13.0308
▁ruffled	-13.0308
▁rules	-13.0308
▁runners	-13.0308
▁rusting	-13.0308
▁salami	-13.0308
▁satchel	-13.0308
▁science	-13.0308
▁scottish	-13.0308
▁scratch	-13.0308
▁scruffy	-13.0308
▁scuba	-13.0308
▁seminar	-13.0308
▁shading	-13.0308
▁shavings	-13.0308
▁shirted	-13.0308
▁sick	-13.0308
▁smell	-13.0308
▁staged	-13.0308
▁stirs	-13.0308
▁streak	-13.0308
▁streaks	-13.0308
▁sunbathing	-13.0308
▁sunken	-13.0308
▁supporting	-13.0308
▁surboard	-13.0308
▁suspension	-13.0308
▁teachers	-13.0308
▁tends	-13.0308
▁tows	-13.0308
▁transparent	-13.0308
▁trestle	-13.0308
▁tugboat	-13.0308
▁twins	-13.0308
▁twisting	-13.0308
▁unidentifiable	-13.0308
▁unseen	-13.0308
▁unusually	-13.0308
▁user	-13.0308
▁vacuum	-13.0308
▁veil	-13.0308
▁vespa	-13.0308
▁vicinity	-13.0308
▁visitor	-13.0308
▁wakeboarding	-13.0308
▁waxing	-13.0308
▁weaving	-13.0308
▁wheelchairs	-13.0308
▁whisk	-13.0308
▁wi	-13.0308
▁widow	-13.0308
▁withe	-13.0308
▁wonder	-13.0308
▁wrinkled	-13.0308
▁wth	-13.0308
▁yaks	-13.0308
▁yellowish	-13.0308
▁youngsters	-13.0308
▁accessory	-13.1108
▁adjoining	-13.1108
▁adolescent	-13.1108
▁affectionately	-13.1108
▁afro	-13.1108
▁al	-13.1108
▁algae	-13.1108
▁amp	-13.1108
▁announcing	-13.1108
▁arranges	-13.1108
▁articulated	-13.1108
▁asking	-13.1108
▁assembling	-13.1108
▁attack	-13.1108
▁average	-13.1108
▁awesome	-13.1108
▁backsides	-13.1108
▁baltimore	-13.1108
▁ban	-13.1108
▁baord	-13.1108
▁barbie	-13.1108
▁barefooted	-13.1108
▁blindfolded	-13.1108
▁bold	-13.1108
▁bowing	-13.1108
▁bracelet	-13.1108
▁breasts	-13.1108
▁browned	-13.1108
▁bulletin	-13.1108
▁burritos	-13.1108
▁bustling	-13.1108
▁calendar	-13.1108
▁calfs	-13.1108
▁campground	-13.1108
▁canisters	-13.1108
▁cardigan	-13.1108
▁casino	-13.1108
▁chandeliers	-13.1108
▁charming	-13.1108
▁cheetah	-13.1108
▁choo	-13.1108
▁chow	-13.1108
▁cigar	-13.1108
▁cleared	-13.1108
▁colander	-13.1108
▁collect	-13.1108
▁comfort	-13.1108
▁composite	-13.1108
▁concession	-13.1108
▁contrast	-13.1108
▁cooktop	-13.1108
▁cowgirl	-13.1108
▁creates	-13.1108
▁crepe	-13.1108
▁cruiser	-13.1108
▁crumpled	-13.1108
▁crusted	-13.1108
▁cylinder	-13.1108
▁daisy	-13.1108
▁darkly	-13.1108
▁deco	-13.1108
▁demonic	-13.1108
▁descend	-13.1108
▁detailing	-13.1108
▁dials	-13.1108
▁diffrent	-13.1108
▁dine	-13.1108
▁dinnerware	-13.1108
▁dive	-13.1108
▁dividing	-13.1108
▁documents	-13.1108
▁dolphins	-13.1108
▁domestic	-13.1108
▁donation	-13.1108
▁doorways	-13.1108
▁drag	-13.1108
▁dreadlocks	-13.1108
▁dull	-13.1108
▁edited	-13.1108
▁egyptian	-13.1108
▁elk	-13.1108
▁enclosures	-13.1108
▁engraved	-13.1108
▁enthusiasts	-13.1108
▁entirely	-13.1108
▁escape	-13.1108
▁exits	-13.1108
▁faux	-13.1108
▁fern	-13.1108
▁films	-13.1108
▁filter	-13.1108
▁final	-13.1108
▁fisherman	-13.1108
▁fiving	-13.1108
▁flooding	-13.1108
▁fort	-13.1108
▁gallop	-13.1108
▁glows	-13.1108
▁googly	-13.1108
▁grade	-13.1108
▁graduate	-13.1108
▁graduates	-13.1108
▁graffitti	-13.1108
▁grasps	-13.1108
▁grater	-13.1108
▁grease	-13.1108
▁grid	-13.1108
▁guardrail	-13.1108
▁gushing	-13.1108
▁happening	-13.1108
▁heeled	-13.1108
▁highlighted	-13.1108
▁hugged	-13.1108
▁icons	-13.1108
▁id	-13.1108
▁illuminates	-13.1108
▁investigate	-13.1108
▁investigates	-13.1108
▁isolated	-13.1108
▁italy	-13.1108
▁jetty	-13.1108
▁joint	-13.1108
▁jousting	-13.1108
▁judges	-13.1108
▁kettles	-13.1108
▁kitesurfing	-13.1108
▁koala	-13.1108
▁kraut	-13.1108
▁launches	-13.1108
▁lavishly	-13.1108
▁lightening	-13.1108
▁listens	-13.1108
▁lo	-13.1108
▁locker	-13.1108
▁locking	-13.1108
▁logos	-13.1108
▁loom	-13.1108
▁louis	-13.1108
▁luncheon	-13.1108
▁mary	-13.1108
▁mate	-13.1108
▁mating	-13.1108
▁mein	-13.1108
▁merchant	-13.1108
▁messily	-13.1108
▁mic	-13.1108
▁michigan	-13.1108
▁mile	-13.1108
▁mills	-13.1108
▁mulch	-13.1108
▁nearing	-13.1108
▁neckties	-13.1108
▁nibbles	-13.1108
▁outcropping	-13.1108
▁overlooked	-13.1108
▁overripe	-13.1108
▁oversize	-13.1108
▁owls	-13.1108
▁paired	-13.1108
▁paisley	-13.1108
▁pallets	-13.1108
▁passage	-13.1108
▁pastrami	-13.1108
▁patrolling	-13.1108
▁peacocks	-13.1108
▁pecks	-13.1108
▁pedestals	-13.1108
▁peeping	-13.1108
▁pensive	-13.1108
▁performer	-13.1108
▁peson	-13.1108
▁pike	-13.1108
▁pinstripe	-13.1108
▁piping	-13.1108
▁plating	-13.1108
▁plywood	-13.1108
▁pod	-13.1108
▁polish	-13.1108
▁politician	-13.1108
▁pomegranate	-13.1108
▁poop	-13.1108
▁popping	-13.1108
▁popsicle	-13.1108
▁portraits	-13.1108
▁postal	-13.1108
▁praying	-13.1108
▁prince	-13.1108
▁proceeding	-13.1108
▁processing	-13.1108
▁producing	-13.1108
▁professionally	-13.1108
▁properly	-13.1108
▁property	-13.1108
▁protector	-13.1108
▁protein	-13.1108
▁rabbits	-13.1108
▁redheaded	-13.1108
▁released	-13.1108
▁renaissance	-13.1108
▁renovations	-13.1108
▁rimmed	-13.1108
▁role	-13.1108
▁saint	-13.1108
▁saluting	-13.1108
▁scanner	-13.1108
▁scantily	-13.1108
▁secured	-13.1108
▁sending	-13.1108
▁serene	-13.1108
▁shampoo	-13.1108
▁shelfs	-13.1108
▁shocked	-13.1108
▁similarly	-13.1108
▁sippy	-13.1108
▁sittin	-13.1108
▁skateboarded	-13.1108
▁slate	-13.1108
▁sleeveless	-13.1108
▁splits	-13.1108
▁spoonful	-13.1108
▁spotlight	-13.1108
▁sprayer	-13.1108
▁stake	-13.1108
▁staying	-13.1108
▁stillness	-13.1108
▁stride	-13.1108
▁successful	-13.1108
▁suckling	-13.1108
▁suites	-13.1108
▁supports	-13.1108
▁tacks	-13.1108
▁tandem	-13.1108
▁tapes	-13.1108
▁taxidermy	-13.1108
▁taxing	-13.1108
▁terminals	-13.1108
▁texts	-13.1108
▁tint	-13.1108
▁toiler	-13.1108
▁touched	-13.1108
▁tp	-13.1108
▁transports	-13.1108
▁traveled	-13.1108
▁traversing	-13.1108
▁trots	-13.1108
▁tucks	-13.1108
▁tugging	-13.1108
▁tux	-13.1108
▁twirling	-13.1108
▁underway	-13.1108
▁urinating	-13.1108
▁valentines	-13.1108
▁vancouver	-13.1108
▁vehicular	-13.1108
▁vinyl	-13.1108
▁vivid	-13.1108
▁wallpapered	-13.1108
▁walnut	-13.1108
▁waring	-13.1108
▁warms	-13.1108
▁wih	-13.1108
▁windowed	-13.1108
▁windsurfers	-13.1108
▁write	-13.1108
▁y	-13.1108
▁yankees	-13.1108
▁zoomed	-13.1108
▁zooms	-13.1108
▁adidas	-13.1978
▁admires	-13.1978
▁adobe	-13.1978
▁advantage	-13.1978
▁afghan	-13.1978
▁airy	-13.1978
▁ally	-13.1978
▁amazed	-13.1978
▁amish	-13.1978
▁anchovies	-13.1978
▁applying	-13.1978
▁arizona	-13.1978
▁artsy	-13.1978
▁arugula	-13.1978
▁assists	-13.1978
▁atmosphere	-13.1978
▁atrium	-13.1978
▁auction	-13.1978
▁avoiding	-13.1978
▁awful	-13.1978
▁bakes	-13.1978
▁barbwire	-13.1978
▁bathe	-13.1978
▁blackberries	-13.1978
▁blacktop	-13.1978
▁bleeding	-13.1978
▁boars	-13.1978
▁bomb	-13.1978
▁bookbag	-13.1978
▁booster	-13.1978
▁bottoms	-13.1978
▁boxer	-13.1978
▁brace	-13.1978
▁bracelets	-13.1978
▁breath	-13.1978
▁bridled	-13.1978
▁briefcases	-13.1978
▁brochures	-13.1978
▁browse	-13.1978
▁campsite	-13.1978
▁careful	-13.1978
▁cartoons	-13.1978
▁carves	-13.1978
▁casing	-13.1978
▁catsup	-13.1978
▁cause	-13.1978
▁charm	-13.1978
▁choice	-13.1978
▁clinging	-13.1978
▁clipboard	-13.1978
▁clutches	-13.1978
▁colgate	-13.1978
▁collide	-13.1978
▁colliding	-13.1978
▁colts	-13.1978
▁completed	-13.1978
▁cosmetics	-13.1978
▁courthouse	-13.1978
▁cove	-13.1978
▁crafted	-13.1978
▁creatures	-13.1978
▁crepes	-13.1978
▁cricket	-13.1978
▁crotch	-13.1978
▁crude	-13.1978
▁curling	-13.1978
▁darth	-13.1978
▁data	-13.1978
▁demon	-13.1978
▁departure	-13.1978
▁deployed	-13.1978
▁designer	-13.1978
▁developed	-13.1978
▁diapers	-13.1978
▁dismantled	-13.1978
▁dollop	-13.1978
▁downed	-13.1978
▁downwards	-13.1978
▁duster	-13.1978
▁dwelling	-13.1978
▁elizabeth	-13.1978
▁emptied	-13.1978
▁excellent	-13.1978
▁expansive	-13.1978
▁expressing	-13.1978
▁extend	-13.1978
▁fascinating	-13.1978
▁feeders	-13.1978
▁felt	-13.1978
▁feminine	-13.1978
▁fielder	-13.1978
▁fives	-13.1978
▁flannel	-13.1978
▁flaps	-13.1978
▁flashes	-13.1978
▁folders	-13.1978
▁fowl	-13.1978
▁frolic	-13.1978
▁frosty	-13.1978
▁funky	-13.1978
▁gallon	-13.1978
▁general	-13.1978
▁glares	-13.1978
▁gliders	-13.1978
▁gondola	-13.1978
▁gooey	-13.1978
▁graham	-13.1978
▁grates	-13.1978
▁grits	-13.1978
▁grumpy	-13.1978
▁hamper	-13.1978
▁handbags	-13.1978
▁happen	-13.1978
▁headdress	-13.1978
▁hi	-13.1978
▁hide	-13.1978
▁hippo	-13.1978
▁hoof	-13.1978
▁hued	-13.1978
▁hutch	-13.1978
▁idea	-13.1978
▁individually	-13.1978
▁innocent	-13.1978
▁installing	-13.1978
▁intriguing	-13.1978
▁involving	-13.1978
▁jammed	-13.1978
▁jobs	-13.1978
▁jones	-13.1978
▁keychain	-13.1978
▁kickstand	-13.1978
▁kill	-13.1978
▁kitchens	-13.1978
▁kneel	-13.1978
▁knelt	-13.1978
▁labelled	-13.1978
▁ladybug	-13.1978
▁largest	-13.1978
▁learns	-13.1978
▁leftovers	-13.1978
▁lightning	-13.1978
▁likely	-13.1978
▁listed	-13.1978
▁lived	-13.1978
▁lobsters	-13.1978
▁lockers	-13.1978
▁locomotives	-13.1978
▁loses	-13.1978
▁loves	-13.1978
▁mamma	-13.1978
▁manhole	-13.1978
▁mash	-13.1978
▁meaty	-13.1978
▁merging	-13.1978
▁mets	-13.1978
▁mild	-13.1978
▁mixers	-13.1978
▁mixes	-13.1978
▁mlb	-13.1978
▁mock	-13.1978
▁modeled	-13.1978
▁mowed	-13.1978
▁musicians	-13.1978
▁mysterious	-13.1978
▁navel	-13.1978
▁nearest	-13.1978
▁nerd	-13.1978
▁noon	-13.1978
▁notice	-13.1978
▁oakland	-13.1978
▁obese	-13.1978
▁onlooking	-13.1978
▁opener	-13.1978
▁operator	-13.1978
▁orchid	-13.1978
▁original	-13.1978
▁os	-13.1978
▁outline	-13.1978
▁outlined	-13.1978
▁outs	-13.1978
▁outward	-13.1978
▁pain	-13.1978
▁pamphlets	-13.1978
▁paths	-13.1978
▁patricks	-13.1978
▁perimeter	-13.1978
▁pf	-13.1978
▁pickled	-13.1978
▁plater	-13.1978
▁plugs	-13.1978
▁plump	-13.1978
▁posting	-13.1978
▁pour	-13.1978
▁prepping	-13.1978
▁pride	-13.1978
▁prominently	-13.1978
▁prosciutto	-13.1978
▁protestors	-13.1978
▁pup	-13.1978
▁purchasing	-13.1978
▁pylons	-13.1978
▁rafters	-13.1978
▁ranger	-13.1978
▁ravioli	-13.1978
▁receiver	-13.1978
▁recycling	-13.1978
▁remain	-13.1978
▁rent	-13.1978
▁ripening	-13.1978
▁riverside	-13.1978
▁robotic	-13.1978
▁rooftops	-13.1978
▁scarecrow	-13.1978
▁scarfs	-13.1978
▁scouts	-13.1978
▁scraps	-13.1978
▁scratches	-13.1978
▁screaming	-13.1978
▁seattle	-13.1978
▁selfies	-13.1978
▁seperated	-13.1978
▁shattered	-13.1978
▁shit	-13.1978
▁siblings	-13.1978
▁silk	-13.1978
▁simultaneously	-13.1978
▁sinking	-13.1978
▁sites	-13.1978
▁slid	-13.1978
▁slot	-13.1978
▁smoked	-13.1978
▁snuggle	-13.1978
▁soaps	-13.1978
▁soar	-13.1978
▁southern	-13.1978
▁sparkler	-13.1978
▁sparrow	-13.1978
▁spears	-13.1978
▁spell	-13.1978
▁splayed	-13.1978
▁sprinkling	-13.1978
▁sprout	-13.1978
▁steet	-13.1978
▁stoop	-13.1978
▁stranded	-13.1978
▁streaking	-13.1978
▁streamlined	-13.1978
▁stunning	-13.1978
▁sustenance	-13.1978
▁sweeper	-13.1978
▁swirl	-13.1978
▁tab	-13.1978
▁tablets	-13.1978
▁tailed	-13.1978
▁tailgate	-13.1978
▁talbe	-13.1978
▁tangle	-13.1978
▁tapestry	-13.1978
▁task	-13.1978
▁teach	-13.1978
▁tear	-13.1978
▁telescope	-13.1978
▁tether	-13.1978
▁ther	-13.1978
▁tickets	-13.1978
▁tigers	-13.1978
▁tilts	-13.1978
▁toothpick	-13.1978
▁torso	-13.1978
▁tress	-13.1978
▁trouble	-13.1978
▁trumpet	-13.1978
▁ultra	-13.1978
▁underbrush	-13.1978
▁unfurnished	-13.1978
▁unidentified	-13.1978
▁untouched	-13.1978
▁upset	-13.1978
▁urine	-13.1978
▁usually	-13.1978
▁vader	-13.1978
▁vcr	-13.1978
▁venice	-13.1978
▁vineyard	-13.1978
▁violet	-13.1978
▁vista	-13.1978
▁wakeboard	-13.1978
▁walkie	-13.1978
▁wardrobe	-13.1978
▁watermelons	-13.1978
▁website	-13.1978
▁whimsical	-13.1978
▁whiskey	-13.1978
▁wilting	-13.1978
▁wiped	-13.1978
▁woodland	-13.1978
▁woody	-13.1978
▁wreaths	-13.1978
▁wreck	-13.1978
▁zip	-13.1978
▁advanced	-13.2931
▁aggressively	-13.2931
▁airfrance	-13.2931
▁animation	-13.2931
▁annoyed	-13.2931
▁armored	-13.2931
▁arrival	-13.2931
▁artichoke	-13.2931
▁ascends	-13.2931
▁ascent	-13.2931
▁atlantic	-13.2931
▁attachments	-13.2931
▁awards	-13.2931
▁barstools	-13.2931
▁beachfront	-13.2931
▁beaded	-13.2931
▁beaked	-13.2931
▁beaten	-13.2931
▁beet	-13.2931
▁believing	-13.2931
▁birdcage	-13.2931
▁blackboard	-13.2931
▁bleak	-13.2931
▁blt	-13.2931
▁boaters	-13.2931
▁boom	-13.2931
▁booties	-13.2931
▁bordering	-13.2931
▁borders	-13.2931
▁boxers	-13.2931
▁breasted	-13.2931
▁brothers	-13.2931
▁buckled	-13.2931
▁bureau	-13.2931
▁caked	-13.2931
▁carcass	-13.2931
▁caucasian	-13.2931
▁changes	-13.2931
▁charity	-13.2931
▁charms	-13.2931
▁checkout	-13.2931
▁cheerful	-13.2931
▁chested	-13.2931
▁chestnut	-13.2931
▁chevy	-13.2931
▁chillin	-13.2931
▁chilling	-13.2931
▁chilly	-13.2931
▁chinatown	-13.2931
▁classy	-13.2931
▁clippers	-13.2931
▁clippings	-13.2931
▁clover	-13.2931
▁cocoa	-13.2931
▁collars	-13.2931
▁comically	-13.2931
▁companions	-13.2931
▁consist	-13.2931
▁contending	-13.2931
▁convoy	-13.2931
▁cookbook	-13.2931
▁coordinating	-13.2931
▁corded	-13.2931
▁corporate	-13.2931
▁cranberries	-13.2931
▁crossbones	-13.2931
▁crossroads	-13.2931
▁crowed	-13.2931
▁crt	-13.2931
▁crumb	-13.2931
▁cubicles	-13.2931
▁culinary	-13.2931
▁curves	-13.2931
▁cutlery	-13.2931
▁cutouts	-13.2931
▁cylindrical	-13.2931
▁dalmation	-13.2931
▁death	-13.2931
▁decrepit	-13.2931
▁delight	-13.2931
▁descent	-13.2931
▁determined	-13.2931
▁dice	-13.2931
▁disabled	-13.2931
▁discuss	-13.2931
▁document	-13.2931
▁dollars	-13.2931
▁dove	-13.2931
▁drainage	-13.2931
▁dribbling	-13.2931
▁drill	-13.2931
▁dutch	-13.2931
▁eager	-13.2931
▁earbuds	-13.2931
▁elder	-13.2931
▁elements	-13.2931
▁elf	-13.2931
▁emirates	-13.2931
▁encased	-13.2931
▁engages	-13.2931
▁enjoyed	-13.2931
▁enthusiast	-13.2931
▁envelopes	-13.2931
▁essentials	-13.2931
▁example	-13.2931
▁executing	-13.2931
▁expert	-13.2931
▁exposing	-13.2931
▁extension	-13.2931
▁extravagant	-13.2931
▁failing	-13.2931
▁farmhouse	-13.2931
▁farmland	-13.2931
▁fe	-13.2931
▁fifteen	-13.2931
▁fin	-13.2931
▁finds	-13.2931
▁firehydrant	-13.2931
▁flaming	-13.2931
▁flask	-13.2931
▁fling	-13.2931
▁flows	-13.2931
▁fluid	-13.2931
▁flushed	-13.2931
▁forth	-13.2931
▁framing	-13.2931
▁fro	-13.2931
▁frown	-13.2931
▁functional	-13.2931
▁geared	-13.2931
▁germany	-13.2931
▁goldfish	-13.2931
▁gowns	-13.2931
▁grandmother	-13.2931
▁graphics	-13.2931
▁greenhouse	-13.2931
▁greets	-13.2931
▁grimaces	-13.2931
▁grinder	-13.2931
▁grip	-13.2931
▁hearth	-13.2931
▁homeplate	-13.2931
▁hosing	-13.2931
▁huddling	-13.2931
▁infamous	-13.2931
▁inserted	-13.2931
▁instructing	-13.2931
▁instructional	-13.2931
▁interacts	-13.2931
▁joker	-13.2931
▁journey	-13.2931
▁joy	-13.2931
▁knoll	-13.2931
▁lacy	-13.2931
▁lanyard	-13.2931
▁largely	-13.2931
▁later	-13.2931
▁lei	-13.2931
▁llamas	-13.2931
▁lollipop	-13.2931
▁lookout	-13.2931
▁looming	-13.2931
▁mache	-13.2931
▁mack	-13.2931
▁magnificent	-13.2931
▁manmade	-13.2931
▁marathon	-13.2931
▁markets	-13.2931
▁marmalade	-13.2931
▁memory	-13.2931
▁messenger	-13.2931
▁miles	-13.2931
▁mmm	-13.2931
▁modeling	-13.2931
▁monochrome	-13.2931
▁moustache	-13.2931
▁multicolor	-13.2931
▁nathans	-13.2931
▁necklaces	-13.2931
▁neglected	-13.2931
▁nesting	-13.2931
▁netbook	-13.2931
▁nutella	-13.2931
▁ontop	-13.2931
▁organization	-13.2931
▁orphanage	-13.2931
▁papered	-13.2931
▁participate	-13.2931
▁pastor	-13.2931
▁pat	-13.2931
▁patchy	-13.2931
▁paul	-13.2931
▁payphone	-13.2931
▁pearls	-13.2931
▁pendant	-13.2931
▁plaster	-13.2931
▁pomegranates	-13.2931
▁pomeranian	-13.2931
▁powerful	-13.2931
▁prepped	-13.2931
▁promotional	-13.2931
▁prone	-13.2931
▁propellors	-13.2931
▁puddles	-13.2931
▁pure	-13.2931
▁railways	-13.2931
▁ramen	-13.2931
▁ranges	-13.2931
▁raring	-13.2931
▁reached	-13.2931
▁realistic	-13.2931
▁recessed	-13.2931
▁recreation	-13.2931
▁refueling	-13.2931
▁representing	-13.2931
▁rickshaw	-13.2931
▁rotating	-13.2931
▁rubbish	-13.2931
▁rush	-13.2931
▁rye	-13.2931
▁sandwhiches	-13.2931
▁save	-13.2931
▁scared	-13.2931
▁scones	-13.2931
▁scoops	-13.2931
▁scrap	-13.2931
▁seashells	-13.2931
▁segments	-13.2931
▁shabby	-13.2931
▁shadowed	-13.2931
▁shawl	-13.2931
▁shoveling	-13.2931
▁sideline	-13.2931
▁simulator	-13.2931
▁sin	-13.2931
▁since	-13.2931
▁sips	-13.2931
▁skewered	-13.2931
▁slat	-13.2931
▁sledding	-13.2931
▁slicer	-13.2931
▁slip	-13.2931
▁smartphones	-13.2931
▁smirk	-13.2931
▁smoggy	-13.2931
▁snail	-13.2931
▁snows	-13.2931
▁soiled	-13.2931
▁sombrero	-13.2931
▁spaniel	-13.2931
▁sparklers	-13.2931
▁spear	-13.2931
▁spooning	-13.2931
▁stabbed	-13.2931
▁stains	-13.2931
▁standstill	-13.2931
▁stomachs	-13.2931
▁stoned	-13.2931
▁struggles	-13.2931
▁studies	-13.2931
▁subject	-13.2931
▁sundaes	-13.2931
▁sundown	-13.2931
▁superimposed	-13.2931
▁surfboarders	-13.2931
▁swimsuits	-13.2931
▁swords	-13.2931
▁tack	-13.2931
▁tavern	-13.2931
▁tended	-13.2931
▁thanksgiving	-13.2931
▁thinks	-13.2931
▁thousands	-13.2931
▁timey	-13.2931
▁toasters	-13.2931
▁toped	-13.2931
▁tortoiseshell	-13.2931
▁transformed	-13.2931
▁tricky	-13.2931
▁triumph	-13.2931
▁trooper	-13.2931
▁trucked	-13.2931
▁truly	-13.2931
▁twist	-13.2931
▁unbaked	-13.2931
▁unplugged	-13.2931
▁unwrapped	-13.2931
▁upturned	-13.2931
▁vegan	-13.2931
▁vodka	-13.2931
▁wagging	-13.2931
▁wand	-13.2931
▁wharf	-13.2931
▁whether	-13.2931
▁whirlpool	-13.2931
▁whiteboard	-13.2931
▁wiener	-13.2931
▁wispy	-13.2931
▁wizard	-13.2931
▁worm	-13.2931
▁wrestle	-13.2931
▁wrestler	-13.2931
▁writings	-13.2931
▁yawns	-13.2931
▁youre	-13.2931
▁zombies	-13.2931
▁zooming	-13.2931
▁abundant	-13.3985
▁advertised	-13.3985
▁aircrafts	-13.3985
▁alto	-13.3985
▁anti	-13.3985
▁appealing	-13.3985
▁appearance	-13.3985
▁apricots	-13.3985
▁archways	-13.3985
▁arial	-13.3985
▁armrest	-13.3985
▁artichokes	-13.3985
▁artists	-13.3985
▁assist	-13.3985
▁attempted	-13.3985
▁authentic	-13.3985
▁bagged	-13.3985
▁bails	-13.3985
▁bannister	-13.3985
▁barack	-13.3985
▁barges	-13.3985
▁beacon	-13.3985
▁bedspreads	-13.3985
▁bespectacled	-13.3985
▁beware	-13.3985
▁billows	-13.3985
▁blackened	-13.3985
▁blizzard	-13.3985
▁blues	-13.3985
▁bobble	-13.3985
▁boutonniere	-13.3985
▁bowler	-13.3985
▁boxcar	-13.3985
▁brave	-13.3985
▁brides	-13.3985
▁brim	-13.3985
▁britain	-13.3985
▁brow	-13.3985
▁brownish	-13.3985
▁bugs	-13.3985
▁bullpen	-13.3985
▁bumps	-13.3985
▁candlelight	-13.3985
▁canon	-13.3985
▁carpets	-13.3985
▁carriers	-13.3985
▁cemetary	-13.3985
▁centre	-13.3985
▁chance	-13.3985
▁checkers	-13.3985
▁cheddar	-13.3985
▁chewed	-13.3985
▁chipping	-13.3985
▁citizen	-13.3985
▁civil	-13.3985
▁civilians	-13.3985
▁clicking	-13.3985
▁collected	-13.3985
▁comforters	-13.3985
▁compared	-13.3985
▁compass	-13.3985
▁complicated	-13.3985
▁contrail	-13.3985
▁convex	-13.3985
▁coop	-13.3985
▁cornbread	-13.3985
▁crescent	-13.3985
▁crests	-13.3985
▁crosstown	-13.3985
▁croutons	-13.3985
▁crumbled	-13.3985
▁crusts	-13.3985
▁crusty	-13.3985
▁cupola	-13.3985
▁dads	-13.3985
▁dam	-13.3985
▁dancer	-13.3985
▁dances	-13.3985
▁daybed	-13.3985
▁decadent	-13.3985
▁dedicated	-13.3985
▁definitely	-13.3985
▁deflated	-13.3985
▁delectable	-13.3985
▁demonstrates	-13.3985
▁densely	-13.3985
▁detroit	-13.3985
▁diagonally	-13.3985
▁digs	-13.3985
▁dimensional	-13.3985
▁disembark	-13.3985
▁dishing	-13.3985
▁disks	-13.3985
▁dougnuts	-13.3985
▁doves	-13.3985
▁downstairs	-13.3985
▁drape	-13.3985
▁dribbles	-13.3985
▁drooping	-13.3985
▁dummies	-13.3985
▁dumped	-13.3985
▁dunking	-13.3985
▁easter	-13.3985
▁edged	-13.3985
▁efficient	-13.3985
▁effort	-13.3985
▁emptying	-13.3985
▁ending	-13.3985
▁ergonomic	-13.3985
▁etched	-13.3985
▁examined	-13.3985
▁excitement	-13.3985
▁experiment	-13.3985
▁fading	-13.3985
▁fancily	-13.3985
▁farming	-13.3985
▁fascinated	-13.3985
▁feathered	-13.3985
▁feeling	-13.3985
▁fender	-13.3985
▁ferret	-13.3985
▁fifties	-13.3985
▁finding	-13.3985
▁fluorescent	-13.3985
▁flutes	-13.3985
▁flyer	-13.3985
▁footpath	-13.3985
▁footstool	-13.3985
▁former	-13.3985
▁freezers	-13.3985
▁furnace	-13.3985
▁gain	-13.3985
▁gardens	-13.3985
▁gatorade	-13.3985
▁girlfriend	-13.3985
▁goo	-13.3985
▁goodbye	-13.3985
▁gourds	-13.3985
▁grainy	-13.3985
▁granny	-13.3985
▁grin	-13.3985
▁handrails	-13.3985
▁hitch	-13.3985
▁hoisted	-13.3985
▁hoods	-13.3985
▁hopping	-13.3985
▁horrible	-13.3985
▁hors	-13.3985
▁houseboat	-13.3985
▁hp	-13.3985
▁hundred	-13.3985
▁hurt	-13.3985
▁hybrid	-13.3985
▁hyde	-13.3985
▁included	-13.3985
▁inflated	-13.3985
▁informational	-13.3985
▁intended	-13.3985
▁intertwined	-13.3985
▁irish	-13.3985
▁ironic	-13.3985
▁jams	-13.3985
▁joe	-13.3985
▁jumpsuit	-13.3985
▁juts	-13.3985
▁kart	-13.3985
▁known	-13.3985
▁kong	-13.3985
▁laced	-13.3985
▁lacrosse	-13.3985
▁lakeside	-13.3985
▁lampposts	-13.3985
▁latte	-13.3985
▁layout	-13.3985
▁lcd	-13.3985
▁lessons	-13.3985
▁lily	-13.3985
▁list	-13.3985
▁loader	-13.3985
▁lunches	-13.3985
▁macintosh	-13.3985
▁maid	-13.3985
▁maps	-13.3985
▁matress	-13.3985
▁meant	-13.3985
▁mechanics	-13.3985
▁medals	-13.3985
▁medley	-13.3985
▁mexico	-13.3985
▁microsoft	-13.3985
▁mingling	-13.3985
▁mitten	-13.3985
▁modem	-13.3985
▁motorcylce	-13.3985
▁movable	-13.3985
▁munch	-13.3985
▁murals	-13.3985
▁nachos	-13.3985
▁nad	-13.3985
▁newlywed	-13.3985
▁nobody	-13.3985
▁ona	-13.3985
▁operate	-13.3985
▁oreo	-13.3985
▁ot	-13.3985
▁overcoat	-13.3985
▁oxygen	-13.3985
▁padding	-13.3985
▁pagoda	-13.3985
▁parading	-13.3985
▁paragliding	-13.3985
▁pasted	-13.3985
▁peal	-13.3985
▁pebbles	-13.3985
▁pee	-13.3985
▁peeing	-13.3985
▁peperoni	-13.3985
▁persian	-13.3985
▁personalized	-13.3985
▁piggy	-13.3985
▁pigtails	-13.3985
▁pines	-13.3985
▁pinkish	-13.3985
▁pipeline	-13.3985
▁plats	-13.3985
▁playroom	-13.3985
▁playstation	-13.3985
▁pleased	-13.3985
▁pools	-13.3985
▁posh	-13.3985
▁presidents	-13.3985
▁prior	-13.3985
▁professionals	-13.3985
▁prom	-13.3985
▁propane	-13.3985
▁protects	-13.3985
▁protrudes	-13.3985
▁provided	-13.3985
▁puff	-13.3985
▁puffs	-13.3985
▁pugs	-13.3985
▁pumping	-13.3985
▁purpose	-13.3985
▁r	-13.3985
▁raise	-13.3985
▁ratchet	-13.3985
▁refreshments	-13.3985
▁regal	-13.3985
▁relatively	-13.3985
▁releases	-13.3985
▁remnants	-13.3985
▁reporter	-13.3985
▁restrooms	-13.3985
▁retaining	-13.3985
▁riderless	-13.3985
▁riverboat	-13.3985
▁roles	-13.3985
▁ruined	-13.3985
▁rushes	-13.3985
▁salvation	-13.3985
▁sandwiched	-13.3985
▁santas	-13.3985
▁saucepan	-13.3985
▁sauteed	-13.3985
▁saver	-13.3985
▁scallions	-13.3985
▁scoreboard	-13.3985
▁scratched	-13.3985
▁scrubby	-13.3985
▁sculpted	-13.3985
▁services	-13.3985
▁servicing	-13.3985
▁settee	-13.3985
▁sewer	-13.3985
▁shapped	-13.3985
▁shave	-13.3985
▁shaves	-13.3985
▁shoving	-13.3985
▁shred	-13.3985
▁shutter	-13.3985
▁silos	-13.3985
▁simulated	-13.3985
▁sittign	-13.3985
▁skim	-13.3985
▁slowing	-13.3985
▁slug	-13.3985
▁soups	-13.3985
▁spicy	-13.3985
▁spill	-13.3985
▁standng	-13.3985
▁staning	-13.3985
▁startled	-13.3985
▁strand	-13.3985
▁stret	-13.3985
▁stroke	-13.3985
▁suburbs	-13.3985
▁successfully	-13.3985
▁sundae	-13.3985
▁surgery	-13.3985
▁suzuki	-13.3985
▁swirly	-13.3985
▁tackling	-13.3985
▁tastefully	-13.3985
▁te	-13.3985
▁tented	-13.3985
▁thirteen	-13.3985
▁tiers	-13.3985
▁toiletry	-13.3985
▁trapped	-13.3985
▁trimmings	-13.3985
▁trot	-13.3985
▁trucking	-13.3985
▁turbines	-13.3985
▁twine	-13.3985
▁tye	-13.3985
▁uncomfortable	-13.3985
▁undone	-13.3985
▁unlit	-13.3985
▁untied	-13.3985
▁unzipped	-13.3985
▁upclose	-13.3985
▁utilizing	-13.3985
▁valve	-13.3985
▁varied	-13.3985
▁viewpoint	-13.3985
▁vitamin	-13.3985
▁volkswagen	-13.3985
▁volvo	-13.3985
▁wakeboarder	-13.3985
▁warped	-13.3985
▁washbasin	-13.3985
▁welcoming	-13.3985
▁wheelers	-13.3985
▁whiskers	-13.3985
▁wile	-13.3985
▁wiring	-13.3985
▁wishes	-13.3985
▁wonderland	-13.3985
▁wrangling	-13.3985
▁xbox	-13.3985
▁yells	-13.3985
▁accept	-13.5163
▁acoustic	-13.5163
▁addresses	-13.5163
▁adjustable	-13.5163
▁admired	-13.5163
▁afar	-13.5163
▁again	-13.5163
▁aging	-13.5163
▁antlers	-13.5163
▁applesauce	-13.5163
▁application	-13.5163
▁applied	-13.5163
▁approached	-13.5163
▁artful	-13.5163
▁ascend	-13.5163
▁astounding	-13.5163
▁astride	-13.5163
▁atlanta	-13.5163
▁attendees	-13.5163
▁awnings	-13.5163
▁backlit	-13.5163
▁badges	-13.5163
▁ballpark	-13.5163
▁bandages	-13.5163
▁barbecued	-13.5163
▁bard	-13.5163
▁barns	-13.5163
▁barrow	-13.5163
▁bass	-13.5163
▁batches	-13.5163
▁battleship	-13.5163
▁bazaar	-13.5163
▁becoming	-13.5163
▁belonging	-13.5163
▁benz	-13.5163
▁bizarre	-13.5163
▁bleacher	-13.5163
▁blinder	-13.5163
▁bluebird	-13.5163
▁bob	-13.5163
▁bodyboarding	-13.5163
▁boeing	-13.5163
▁booty	-13.5163
▁boxcars	-13.5163
▁braves	-13.5163
▁bridles	-13.5163
▁bronco	-13.5163
▁buddhist	-13.5163
▁cabbages	-13.5163
▁cacti	-13.5163
▁caddy	-13.5163
▁caravan	-13.5163
▁carnation	-13.5163
▁cartons	-13.5163
▁cashews	-13.5163
▁caterpillar	-13.5163
▁catholic	-13.5163
▁cautiously	-13.5163
▁centers	-13.5163
▁chargers	-13.5163
▁cheer	-13.5163
▁chuck	-13.5163
▁cinder	-13.5163
▁classical	-13.5163
▁climber	-13.5163
▁clinton	-13.5163
▁clipping	-13.5163
▁clumps	-13.5163
▁coals	-13.5163
▁cobbler	-13.5163
▁cocker	-13.5163
▁code	-13.5163
▁coffe	-13.5163
▁comparing	-13.5163
▁compound	-13.5163
▁congratulating	-13.5163
▁consume	-13.5163
▁contemplates	-13.5163
▁conventional	-13.5163
▁core	-13.5163
▁corners	-13.5163
▁courch	-13.5163
▁crawls	-13.5163
▁crayons	-13.5163
▁creatively	-13.5163
▁crucifix	-13.5163
▁cubed	-13.5163
▁cubical	-13.5163
▁customized	-13.5163
▁dandelion	-13.5163
▁decks	-13.5163
▁deers	-13.5163
▁demonstrate	-13.5163
▁development	-13.5163
▁devoid	-13.5163
▁directed	-13.5163
▁disassembled	-13.5163
▁disheveled	-13.5163
▁diverse	-13.5163
▁drier	-13.5163
▁drifting	-13.5163
▁drizzle	-13.5163
▁droplets	-13.5163
▁duo	-13.5163
▁duvet	-13.5163
▁earlier	-13.5163
▁ease	-13.5163
▁ed	-13.5163
▁electricity	-13.5163
▁emerges	-13.5163
▁enclose	-13.5163
▁ensemble	-13.5163
▁entertain	-13.5163
▁erase	-13.5163
▁escort	-13.5163
▁escorting	-13.5163
▁especially	-13.5163
▁examples	-13.5163
▁executes	-13.5163
▁executive	-13.5163
▁exercises	-13.5163
▁exhausted	-13.5163
▁experience	-13.5163
▁expressions	-13.5163
▁extensive	-13.5163
▁eyeballs	-13.5163
▁eyeing	-13.5163
▁facebook	-13.5163
▁faster	-13.5163
▁ferries	-13.5163
▁fierce	-13.5163
▁firsbee	-13.5163
▁flakes	-13.5163
▁flap	-13.5163
▁flattened	-13.5163
▁floret	-13.5163
▁foilage	-13.5163
▁foothills	-13.5163
▁footlong	-13.5163
▁forms	-13.5163
▁fron	-13.5163
▁fueling	-13.5163
▁fulled	-13.5163
▁funeral	-13.5163
▁furnishing	-13.5163
▁gaining	-13.5163
▁gallops	-13.5163
▁garnishes	-13.5163
▁garnishment	-13.5163
▁george	-13.5163
▁gingerbread	-13.5163
▁gingham	-13.5163
▁giraff	-13.5163
▁glossy	-13.5163
▁gong	-13.5163
▁gracefully	-13.5163
▁grandma	-13.5163
▁grapefruits	-13.5163
▁grassing	-13.5163
▁grille	-13.5163
▁grills	-13.5163
▁grimacing	-13.5163
▁grooms	-13.5163
▁growling	-13.5163
▁guinea	-13.5163
▁guinness	-13.5163
▁hangers	-13.5163
▁harper	-13.5163
▁hatchback	-13.5163
▁hauled	-13.5163
▁headphone	-13.5163
▁helped	-13.5163
▁hen	-13.5163
▁highest	-13.5163
▁hil	-13.5163
▁hong	-13.5163
▁horizontally	-13.5163
▁housed	-13.5163
▁hub	-13.5163
▁hush	-13.5163
▁hyenas	-13.5163
▁hyrdrant	-13.5163
▁icicles	-13.5163
▁icon	-13.5163
▁illuminating	-13.5163
▁installation	-13.5163
▁instructs	-13.5163
▁intersections	-13.5163
▁iv	-13.5163
▁jeeps	-13.5163
▁jello	-13.5163
▁jewish	-13.5163
▁johns	-13.5163
▁judged	-13.5163
▁juices	-13.5163
▁july	-13.5163
▁jumble	-13.5163
▁jutting	-13.5163
▁kickflip	-13.5163
▁kiddie	-13.5163
▁kingdom	-13.5163
▁kings	-13.5163
▁klm	-13.5163
▁kneepads	-13.5163
▁lama	-13.5163
▁las	-13.5163
▁latin	-13.5163
▁lattice	-13.5163
▁launched	-13.5163
▁leeks	-13.5163
▁linger	-13.5163
▁listing	-13.5163
▁logging	-13.5163
▁lookign	-13.5163
▁lorry	-13.5163
▁magenta	-13.5163
▁mallet	-13.5163
▁mandarin	-13.5163
▁manger	-13.5163
▁mangos	-13.5163
▁manipulated	-13.5163
▁marijuana	-13.5163
▁mariners	-13.5163
▁martini	-13.5163
▁masked	-13.5163
▁masters	-13.5163
▁mechanic	-13.5163
▁met	-13.5163
▁mimicking	-13.5163
▁minimalist	-13.5163
▁minute	-13.5163
▁misshapen	-13.5163
▁moderate	-13.5163
▁modernized	-13.5163
▁moldy	-13.5163
▁moms	-13.5163
▁motors	-13.5163
▁mower	-13.5163
▁muscle	-13.5163
▁necked	-13.5163
▁nordic	-13.5163
▁nourishment	-13.5163
▁nozzle	-13.5163
▁nudging	-13.5163
▁observers	-13.5163
▁occupants	-13.5163
▁occupying	-13.5163
▁oin	-13.5163
▁ok	-13.5163
▁outwards	-13.5163
▁paintbrush	-13.5163
▁pamphlet	-13.5163
▁pant	-13.5163
▁partners	-13.5163
▁passangers	-13.5163
▁patting	-13.5163
▁paused	-13.5163
▁payer	-13.5163
▁pennsylvania	-13.5163
▁peter	-13.5163
▁photographic	-13.5163
▁photoshop	-13.5163
▁pill	-13.5163
▁pinto	-13.5163
▁pleasure	-13.5163
▁poem	-13.5163
▁pom	-13.5163
▁predators	-13.5163
▁preserver	-13.5163
▁pressure	-13.5163
▁printing	-13.5163
▁prohibiting	-13.5163
▁projects	-13.5163
▁promoting	-13.5163
▁rafting	-13.5163
▁reason	-13.5163
▁redone	-13.5163
▁ref	-13.5163
▁regarding	-13.5163
▁reindeer	-13.5163
▁relief	-13.5163
▁reporters	-13.5163
▁rights	-13.5163
▁rind	-13.5163
▁ripeness	-13.5163
▁roams	-13.5163
▁roaring	-13.5163
▁robin	-13.5163
▁rolex	-13.5163
▁rotunda	-13.5163
▁routes	-13.5163
▁ruck	-13.5163
▁runaway	-13.5163
▁runways	-13.5163
▁sadly	-13.5163
▁safely	-13.5163
▁said	-13.5163
▁sanctioned	-13.5163
▁screwdriver	-13.5163
▁scrubber	-13.5163
▁send	-13.5163
▁servers	-13.5163
▁sharpener	-13.5163
▁sharpening	-13.5163
▁sheers	-13.5163
▁shetland	-13.5163
▁shoelace	-13.5163
▁shores	-13.5163
▁shoved	-13.5163
▁sil	-13.5163
▁simpsons	-13.5163
▁singer	-13.5163
▁situation	-13.5163
▁skewer	-13.5163
▁skidding	-13.5163
▁skilled	-13.5163
▁slam	-13.5163
▁sleds	-13.5163
▁smal	-13.5163
▁smith	-13.5163
▁sophisticated	-13.5163
▁sorted	-13.5163
▁souffle	-13.5163
▁soul	-13.5163
▁southwestern	-13.5163
▁sown	-13.5163
▁specially	-13.5163
▁specific	-13.5163
▁spirit	-13.5163
▁spokes	-13.5163
▁sporty	-13.5163
▁stamps	-13.5163
▁stays	-13.5163
▁steamboat	-13.5163
▁stern	-13.5163
▁stitched	-13.5163
▁stooping	-13.5163
▁stting	-13.5163
▁sturdy	-13.5163
▁styling	-13.5163
▁sum	-13.5163
▁supported	-13.5163
▁swaddled	-13.5163
▁sweaty	-13.5163
▁swirled	-13.5163
▁sydney	-13.5163
▁taht	-13.5163
▁talkie	-13.5163
▁tarts	-13.5163
▁terrible	-13.5163
▁thigh	-13.5163
▁thinly	-13.5163
▁tiki	-13.5163
▁tipping	-13.5163
▁title	-13.5163
▁tomatos	-13.5163
▁toting	-13.5163
▁trashcans	-13.5163
▁treetops	-13.5163
▁treks	-13.5163
▁tri	-13.5163
▁tucking	-13.5163
▁tummy	-13.5163
▁turbine	-13.5163
▁twists	-13.5163
▁unfolded	-13.5163
▁unicorn	-13.5163
▁uninstalled	-13.5163
▁until	-13.5163
▁users	-13.5163
▁usual	-13.5163
▁vegas	-13.5163
▁vegetated	-13.5163
▁victoria	-13.5163
▁vietnamese	-13.5163
▁volunteer	-13.5163
▁walkways	-13.5163
▁wastebasket	-13.5163
▁watercraft	-13.5163
▁waxed	-13.5163
▁weathervane	-13.5163
▁webcam	-13.5163
▁weedy	-13.5163
▁westminster	-13.5163
▁whatever	-13.5163
▁wholly	-13.5163
▁winner	-13.5163
▁wintry	-13.5163
▁won	-13.5163
▁woolen	-13.5163
▁wristband	-13.5163
▁yes	-13.5163
▁zipping	-13.5163
▁abandon	-13.6498
▁according	-13.6498
▁addition	-13.6498
▁adn	-13.6498
▁advertise	-13.6498
▁afield	-13.6498
▁aim	-13.6498
▁airports	-13.6498
▁alertly	-13.6498
▁alfalfa	-13.6498
▁alfredo	-13.6498
▁alive	-13.6498
▁allot	-13.6498
▁amused	-13.6498
▁anniversary	-13.6498
▁announcer	-13.6498
▁answering	-13.6498
▁antennae	-13.6498
▁anytime	-13.6498
▁app	-13.6498
▁applies	-13.6498
▁appreciating	-13.6498
▁ar	-13.6498
▁arrayed	-13.6498
▁artifacts	-13.6498
▁assisted	-13.6498
▁attracts	-13.6498
▁autographed	-13.6498
▁avid	-13.6498
▁awake	-13.6498
▁baggy	-13.6498
▁bail	-13.6498
▁balck	-13.6498
▁ballon	-13.6498
▁bandaged	-13.6498
▁bands	-13.6498
▁bannanas	-13.6498
▁barbershop	-13.6498
▁bareback	-13.6498
▁barnyard	-13.6498
▁baron	-13.6498
▁beachside	-13.6498
▁beanbag	-13.6498
▁beast	-13.6498
▁beaver	-13.6498
▁beetle	-13.6498
▁beginner	-13.6498
▁begs	-13.6498
▁berlin	-13.6498
▁bible	-13.6498
▁biggest	-13.6498
▁binders	-13.6498
▁biplanes	-13.6498
▁birch	-13.6498
▁blazing	-13.6498
▁blends	-13.6498
▁bluff	-13.6498
▁blurs	-13.6498
▁bonnet	-13.6498
▁boundary	-13.6498
▁brahma	-13.6498
▁braided	-13.6498
▁braids	-13.6498
▁bred	-13.6498
▁breeds	-13.6498
▁brilliant	-13.6498
▁broadly	-13.6498
▁brunch	-13.6498
▁brussels	-13.6498
▁budding	-13.6498
▁buddy	-13.6498
▁buoys	-13.6498
▁busily	-13.6498
▁cabins	-13.6498
▁cam	-13.6498
▁campfire	-13.6498
▁candlesticks	-13.6498
▁canister	-13.6498
▁cannon	-13.6498
▁cartoonish	-13.6498
▁catamaran	-13.6498
▁celebrity	-13.6498
▁ceramics	-13.6498
▁challenging	-13.6498
▁chapel	-13.6498
▁chaps	-13.6498
▁chart	-13.6498
▁cheap	-13.6498
▁checkpoint	-13.6498
▁cheeks	-13.6498
▁cheers	-13.6498
▁cheetos	-13.6498
▁chic	-13.6498
▁choir	-13.6498
▁chugging	-13.6498
▁ciabatta	-13.6498
▁circuit	-13.6498
▁clasping	-13.6498
▁clementine	-13.6498
▁clementines	-13.6498
▁click	-13.6498
▁clings	-13.6498
▁closes	-13.6498
▁clothe	-13.6498
▁coached	-13.6498
▁coating	-13.6498
▁cockatoo	-13.6498
▁colleagues	-13.6498
▁collectibles	-13.6498
▁combed	-13.6498
▁comics	-13.6498
▁commuting	-13.6498
▁condom	-13.6498
▁confection	-13.6498
▁confinement	-13.6498
▁connects	-13.6498
▁contestant	-13.6498
▁continue	-13.6498
▁convenient	-13.6498
▁cookbooks	-13.6498
▁corgi	-13.6498
▁correct	-13.6498
▁cosmetic	-13.6498
▁courtroom	-13.6498
▁cracks	-13.6498
▁cradle	-13.6498
▁crews	-13.6498
▁crinkle	-13.6498
▁criss	-13.6498
▁crook	-13.6498
▁crush	-13.6498
▁ct	-13.6498
▁cultural	-13.6498
▁curio	-13.6498
▁dandelions	-13.6498
▁darker	-13.6498
▁decided	-13.6498
▁decoratively	-13.6498
▁deformed	-13.6498
▁del	-13.6498
▁delicacy	-13.6498
▁dented	-13.6498
▁dentist	-13.6498
▁deodorant	-13.6498
▁derelict	-13.6498
▁diagram	-13.6498
▁die	-13.6498
▁dinosaurs	-13.6498
▁diorama	-13.6498
▁disco	-13.6498
▁disposal	-13.6498
▁distinctive	-13.6498
▁dole	-13.6498
▁dominos	-13.6498
▁doodling	-13.6498
▁dragged	-13.6498
▁dread	-13.6498
▁dreads	-13.6498
▁dressage	-13.6498
▁driftwood	-13.6498
▁dwarfed	-13.6498
▁easier	-13.6498
▁eatting	-13.6498
▁effects	-13.6498
▁elbows	-13.6498
▁email	-13.6498
▁enjoyable	-13.6498
▁exact	-13.6498
▁fabulous	-13.6498
▁facet	-13.6498
▁familiar	-13.6498
▁farther	-13.6498
▁figs	-13.6498
▁finch	-13.6498
▁fireplug	-13.6498
▁firm	-13.6498
▁fishermen	-13.6498
▁fishnet	-13.6498
▁flagpole	-13.6498
▁flank	-13.6498
▁flippers	-13.6498
▁floaters	-13.6498
▁fluffed	-13.6498
▁flurry	-13.6498
▁foaming	-13.6498
▁foldable	-13.6498
▁forage	-13.6498
▁foreheads	-13.6498
▁freshener	-13.6498
▁friday	-13.6498
▁frilly	-13.6498
▁fritter	-13.6498
▁frizbe	-13.6498
▁frontier	-13.6498
▁functions	-13.6498
▁funnel	-13.6498
▁gauze	-13.6498
▁gelato	-13.6498
▁gerbil	-13.6498
▁girrafe	-13.6498
▁girraffe	-13.6498
▁glazing	-13.6498
▁glimpse	-13.6498
▁glory	-13.6498
▁gnawing	-13.6498
▁grace	-13.6498
▁graffitid	-13.6498
▁granddaughter	-13.6498
▁grime	-13.6498
▁grizzle	-13.6498
▁handkerchief	-13.6498
▁handset	-13.6498
▁harvested	-13.6498
▁hashbrowns	-13.6498
▁haze	-13.6498
▁headless	-13.6498
▁heap	-13.6498
▁heaped	-13.6498
▁heritage	-13.6498
▁highlights	-13.6498
▁hogs	-13.6498
▁honk	-13.6498
▁hoody	-13.6498
▁hops	-13.6498
▁hotplate	-13.6498
▁hull	-13.6498
▁hummus	-13.6498
▁hunches	-13.6498
▁imitating	-13.6498
▁impressed	-13.6498
▁indifferent	-13.6498
▁informing	-13.6498
▁initials	-13.6498
▁inlet	-13.6498
▁inscribed	-13.6498
▁inscription	-13.6498
▁institutional	-13.6498
▁inthe	-13.6498
▁invisible	-13.6498
▁ion	-13.6498
▁jeff	-13.6498
▁joining	-13.6498
▁jointly	-13.6498
▁juicing	-13.6498
▁kabob	-13.6498
▁keepers	-13.6498
▁kennel	-13.6498
▁khakis	-13.6498
▁lad	-13.6498
▁laminate	-13.6498
▁landmark	-13.6498
▁lapsed	-13.6498
▁leaguer	-13.6498
▁leathers	-13.6498
▁licked	-13.6498
▁lieing	-13.6498
▁lilacs	-13.6498
▁literature	-13.6498
▁lodged	-13.6498
▁longingly	-13.6498
▁lose	-13.6498
▁loved	-13.6498
▁lovingly	-13.6498
▁luck	-13.6498
▁lunge	-13.6498
▁madison	-13.6498
▁mailboxes	-13.6498
▁majestically	-13.6498
▁malaysia	-13.6498
▁malaysian	-13.6498
▁manager	-13.6498
▁manhattan	-13.6498
▁manipulating	-13.6498
▁manufacturing	-13.6498
▁margarita	-13.6498
▁margherita	-13.6498
▁matter	-13.6498
▁maze	-13.6498
▁meander	-13.6498
▁meets	-13.6498
▁mementos	-13.6498
▁merchants	-13.6498
▁merge	-13.6498
▁michael	-13.6498
▁milked	-13.6498
▁milks	-13.6498
▁mints	-13.6498
▁mission	-13.6498
▁mittens	-13.6498
▁mommy	-13.6498
▁monogrammed	-13.6498
▁monopoly	-13.6498
▁mooring	-13.6498
▁mortar	-13.6498
▁motionless	-13.6498
▁motions	-13.6498
▁moto	-13.6498
▁motorcyles	-13.6498
▁motorist	-13.6498
▁mouthed	-13.6498
▁multistory	-13.6498
▁nd	-13.6498
▁nectar	-13.6498
▁negative	-13.6498
▁nerf	-13.6498
▁network	-13.6498
▁newest	-13.6498
▁niche	-13.6498
▁nw	-13.6498
▁obscene	-13.6498
▁obscures	-13.6498
▁obstructed	-13.6498
▁octagonal	-13.6498
▁od	-13.6498
▁odds	-13.6498
▁offer	-13.6498
▁onboard	-13.6498
▁onstage	-13.6498
▁op	-13.6498
▁operation	-13.6498
▁organizer	-13.6498
▁ottomans	-13.6498
▁outcrop	-13.6498
▁overexposed	-13.6498
▁overhanging	-13.6498
▁overheard	-13.6498
▁overtop	-13.6498
▁parachuting	-13.6498
▁partaking	-13.6498
▁partitions	-13.6498
▁passageway	-13.6498
▁pastures	-13.6498
▁paving	-13.6498
▁pawn	-13.6498
▁peaked	-13.6498
▁pealed	-13.6498
▁pecans	-13.6498
▁peope	-13.6498
▁peripheral	-13.6498
▁persona	-13.6498
▁philadelphia	-13.6498
▁phillies	-13.6498
▁phrase	-13.6498
▁physical	-13.6498
▁pieced	-13.6498
▁pilled	-13.6498
▁pinning	-13.6498
▁pinstriped	-13.6498
▁pint	-13.6498
▁plantain	-13.6498
▁plentiful	-13.6498
▁plume	-13.6498
▁plying	-13.6498
▁pods	-13.6498
▁politicians	-13.6498
▁possession	-13.6498
▁postage	-13.6498
▁pouches	-13.6498
▁pounce	-13.6498
▁precariously	-13.6498
▁presidential	-13.6498
▁prizes	-13.6498
▁problem	-13.6498
▁processed	-13.6498
▁programming	-13.6498
▁protester	-13.6498
▁puffed	-13.6498
▁puppets	-13.6498
▁purposes	-13.6498
▁radish	-13.6498
▁rained	-13.6498
▁reacting	-13.6498
▁receives	-13.6498
▁recess	-13.6498
▁recognizable	-13.6498
▁refrigerated	-13.6498
▁refrigeration	-13.6498
▁refurbished	-13.6498
▁removable	-13.6498
▁review	-13.6498
▁ringed	-13.6498
▁rom	-13.6498
▁roping	-13.6498
▁safeway	-13.6498
▁sailboard	-13.6498
▁saloon	-13.6498
▁sandal	-13.6498
▁sash	-13.6498
▁schoolbus	-13.6498
▁scraper	-13.6498
▁screensaver	-13.6498
▁scrubs	-13.6498
▁severely	-13.6498
▁shallows	-13.6498
▁sharpie	-13.6498
▁sharply	-13.6498
▁shear	-13.6498
▁sheeted	-13.6498
▁shields	-13.6498
▁showed	-13.6498
▁shuttered	-13.6498
▁sibling	-13.6498
▁sideburns	-13.6498
▁sidwalk	-13.6498
▁sighn	-13.6498
▁skatboard	-13.6498
▁skill	-13.6498
▁slabs	-13.6498
▁sleeper	-13.6498
▁slipper	-13.6498
▁slips	-13.6498
▁smells	-13.6498
▁smokey	-13.6498
▁smoky	-13.6498
▁smoothies	-13.6498
▁snacking	-13.6498
▁snowball	-13.6498
▁soccor	-13.6498
▁sorry	-13.6498
▁spaceous	-13.6498
▁span	-13.6498
▁spatulas	-13.6498
▁spend	-13.6498
▁spikes	-13.6498
▁splashed	-13.6498
▁spools	-13.6498
▁sprinkler	-13.6498
▁sprints	-13.6498
▁stagecoach	-13.6498
▁staples	-13.6498
▁steaks	-13.6498
▁steams	-13.6498
▁stepped	-13.6498
▁sterile	-13.6498
▁stoic	-13.6498
▁stowed	-13.6498
▁strain	-13.6498
▁straining	-13.6498
▁strokes	-13.6498
▁stroking	-13.6498
▁struck	-13.6498
▁struts	-13.6498
▁stylus	-13.6498
▁subs	-13.6498
▁succulents	-13.6498
▁sunday	-13.6498
▁sunning	-13.6498
▁superman	-13.6498
▁supreme	-13.6498
▁susan	-13.6498
▁suspicious	-13.6498
▁sweeps	-13.6498
▁swishing	-13.6498
▁tabe	-13.6498
▁taker	-13.6498
▁talbot	-13.6498
▁tapping	-13.6498
▁tarps	-13.6498
▁tartar	-13.6498
▁tastes	-13.6498
▁taught	-13.6498
▁tearing	-13.6498
▁technician	-13.6498
▁technological	-13.6498
▁ted	-13.6498
▁tender	-13.6498
▁textbook	-13.6498
▁thirty	-13.6498
▁thorny	-13.6498
▁tim	-13.6498
▁toga	-13.6498
▁torches	-13.6498
▁tortoise	-13.6498
▁traffice	-13.6498
▁trampoline	-13.6498
▁trams	-13.6498
▁treading	-13.6498
▁trellis	-13.6498
▁triangles	-13.6498
▁tried	-13.6498
▁troll	-13.6498
▁turbans	-13.6498
▁turntable	-13.6498
▁umbrealla	-13.6498
▁universal	-13.6498
▁usage	-13.6498
▁valves	-13.6498
▁vapor	-13.6498
▁variations	-13.6498
▁vender	-13.6498
▁venturing	-13.6498
▁vespas	-13.6498
▁vice	-13.6498
▁vision	-13.6498
▁vying	-13.6498
▁waiters	-13.6498
▁ward	-13.6498
▁webpage	-13.6498
▁wed	-13.6498
▁widescreen	-13.6498
▁wiht	-13.6498
▁windsurfs	-13.6498
▁winters	-13.6498
▁wipe	-13.6498
▁witch	-13.6498
▁witches	-13.6498
▁wondering	-13.6498
▁wording	-13.6498
▁workbench	-13.6498
▁wound	-13.6498
▁wrinkles	-13.6498
▁zipper	-13.6498
▁zippered	-13.6498
▁zodiac	-13.6498
▁ability	-13.804
▁abraham	-13.804
▁accepting	-13.804
▁accompany	-13.804
▁actions	-13.804
▁adjusted	-13.804
▁aer	-13.804
▁af	-13.804
▁afraid	-13.804
▁aggressive	-13.804
▁allover	-13.804
▁altar	-13.804
▁amazon	-13.804
▁ambulances	-13.804
▁americans	-13.804
▁amusing	-13.804
▁ann	-13.804
▁anywhere	-13.804
▁approval	-13.804
▁arc	-13.804
▁architecturally	-13.804
▁arrange	-13.804
▁ash	-13.804
▁assistance	-13.804
▁attacked	-13.804
▁autograph	-13.804
▁avatar	-13.804
▁backup	-13.804
▁ballroom	-13.804
▁bandage	-13.804
▁barley	-13.804
▁basebal	-13.804
▁basking	-13.804
▁bassinet	-13.804
▁bathes	-13.804
▁battling	-13.804
▁belong	-13.804
▁benedict	-13.804
▁beret	-13.804
▁bet	-13.804
▁betting	-13.804
▁bibs	-13.804
▁bid	-13.804
▁binoculars	-13.804
▁birdbath	-13.804
▁blast	-13.804
▁blaze	-13.804
▁blower	-13.804
▁boad	-13.804
▁bodyboard	-13.804
▁bog	-13.804
▁bonds	-13.804
▁bonsai	-13.804
▁booklet	-13.804
▁boombox	-13.804
▁boring	-13.804
▁bouncy	-13.804
▁bounds	-13.804
▁bourbon	-13.804
▁bout	-13.804
▁bowel	-13.804
▁bowels	-13.804
▁braid	-13.804
▁branded	-13.804
▁bratwurst	-13.804
▁brimmed	-13.804
▁brochure	-13.804
▁brocoli	-13.804
▁browning	-13.804
▁bubbly	-13.804
▁bucks	-13.804
▁budweiser	-13.804
▁buffalos	-13.804
▁buiding	-13.804
▁buldings	-13.804
▁bulging	-13.804
▁bulidings	-13.804
▁bunkbed	-13.804
▁burn	-13.804
▁burns	-13.804
▁buttery	-13.804
▁ca	-13.804
▁cal	-13.804
▁calculators	-13.804
▁calzones	-13.804
▁canning	-13.804
▁capable	-13.804
▁captioned	-13.804
▁cardinals	-13.804
▁caricature	-13.804
▁carport	-13.804
▁carraige	-13.804
▁carseat	-13.804
▁catnip	-13.804
▁cautionary	-13.804
▁certainly	-13.804
▁chamber	-13.804
▁chariot	-13.804
▁cheerleader	-13.804
▁chickpeas	-13.804
▁chilies	-13.804
▁chimneys	-13.804
▁christ	-13.804
▁chunky	-13.804
▁clams	-13.804
▁clinic	-13.804
▁clogged	-13.804
▁clouded	-13.804
▁clutched	-13.804
▁coaching	-13.804
▁coasting	-13.804
▁coco	-13.804
▁collectible	-13.804
▁collision	-13.804
▁colourful	-13.804
▁combat	-13.804
▁combines	-13.804
▁comparison	-13.804
▁composed	-13.804
▁concoction	-13.804
▁consoles	-13.804
▁constructing	-13.804
▁continues	-13.804
▁conversations	-13.804
▁converses	-13.804
▁corks	-13.804
▁corkscrew	-13.804
▁corrected	-13.804
▁corsage	-13.804
▁cost	-13.804
▁cough	-13.804
▁counting	-13.804
▁coup	-13.804
▁coveralls	-13.804
▁craggy	-13.804
▁crater	-13.804
▁creamer	-13.804
▁creams	-13.804
▁creations	-13.804
▁crossroad	-13.804
▁crutches	-13.804
▁cupping	-13.804
▁cutters	-13.804
▁dangerously	-13.804
▁dangled	-13.804
▁decaying	-13.804
▁delicately	-13.804
▁depict	-13.804
▁depiction	-13.804
▁despite	-13.804
▁dick	-13.804
▁differnt	-13.804
▁dinging	-13.804
▁disembarking	-13.804
▁dispensing	-13.804
▁distinct	-13.804
▁divers	-13.804
▁division	-13.804
▁dodging	-13.804
▁doge	-13.804
▁dominates	-13.804
▁don	-13.804
▁donations	-13.804
▁doorstep	-13.804
▁doubled	-13.804
▁draining	-13.804
▁dramatically	-13.804
▁drank	-13.804
▁draught	-13.804
▁drifts	-13.804
▁drizzling	-13.804
▁drunk	-13.804
▁ducking	-13.804
▁dudes	-13.804
▁duke	-13.804
▁dumb	-13.804
▁dynamite	-13.804
▁elongated	-13.804
▁embellished	-13.804
▁emblems	-13.804
▁emits	-13.804
▁encompassing	-13.804
▁enterprise	-13.804
▁entwined	-13.804
▁eps	-13.804
▁escorted	-13.804
▁euro	-13.804
▁eva	-13.804
▁eventually	-13.804
▁exceptionally	-13.804
▁explains	-13.804
▁explore	-13.804
▁expo	-13.804
▁extraordinary	-13.804
▁fail	-13.804
▁feathery	-13.804
▁fied	-13.804
▁fifty	-13.804
▁fillings	-13.804
▁fingertips	-13.804
▁fists	-13.804
▁flair	-13.804
▁flanking	-13.804
▁fleece	-13.804
▁flesh	-13.804
▁flexing	-13.804
▁flights	-13.804
▁flowerpot	-13.804
▁focuses	-13.804
▁folds	-13.804
▁forces	-13.804
▁forked	-13.804
▁forlorn	-13.804
▁foul	-13.804
▁frontal	-13.804
▁frumpled	-13.804
▁fueled	-13.804
▁furred	-13.804
▁furthest	-13.804
▁gains	-13.804
▁gauge	-13.804
▁gin	-13.804
▁glacier	-13.804
▁glances	-13.804
▁glassy	-13.804
▁gleaming	-13.804
▁glistening	-13.804
▁gnarly	-13.804
▁golfer	-13.804
▁goofing	-13.804
▁googles	-13.804
▁graph	-13.804
▁grassed	-13.804
▁grayish	-13.804
▁grungy	-13.804
▁gump	-13.804
▁gyro	-13.804
▁h	-13.804
▁halo	-13.804
▁harbour	-13.804
▁hardly	-13.804
▁harvest	-13.804
▁harvesting	-13.804
▁hawks	-13.804
▁heaping	-13.804
▁hikes	-13.804
▁hilton	-13.804
▁hollow	-13.804
▁homework	-13.804
▁homey	-13.804
▁hookah	-13.804
▁hooves	-13.804
▁houseplant	-13.804
▁houseplants	-13.804
▁hurdles	-13.804
▁hurry	-13.804
▁hyrdant	-13.804
▁identically	-13.804
▁idiot	-13.804
▁idling	-13.804
▁idyllic	-13.804
▁illegally	-13.804
▁illusion	-13.804
▁illustrated	-13.804
▁incomplete	-13.804
▁incredibly	-13.804
▁indiana	-13.804
▁indians	-13.804
▁indicated	-13.804
▁inset	-13.804
▁insides	-13.804
▁inspected	-13.804
▁inter	-13.804
▁intercept	-13.804
▁interface	-13.804
▁ipads	-13.804
▁iphones	-13.804
▁j	-13.804
▁jay	-13.804
▁jewels	-13.804
▁jordan	-13.804
▁karaoke	-13.804
▁kawasaki	-13.804
▁kayaker	-13.804
▁kerry	-13.804
▁keypad	-13.804
▁kilts	-13.804
▁kitcehn	-13.804
▁kitchenware	-13.804
▁kiteboards	-13.804
▁kleenex	-13.804
▁knack	-13.804
▁knickknacks	-13.804
▁knows	-13.804
▁lack	-13.804
▁lacking	-13.804
▁lampshade	-13.804
▁lapt	-13.804
▁laser	-13.804
▁leafed	-13.804
▁leak	-13.804
▁ledges	-13.804
▁levitating	-13.804
▁lg	-13.804
▁limited	-13.804
▁limousine	-13.804
▁loafs	-13.804
▁loan	-13.804
▁loosely	-13.804
▁loosened	-13.804
▁lovers	-13.804
▁makings	-13.804
▁mallard	-13.804
▁manchester	-13.804
▁manicure	-13.804
▁mardi	-13.804
▁marilyn	-13.804
▁martin	-13.804
▁matt	-13.804
▁mauve	-13.804
▁mcdonald	-13.804
▁meanders	-13.804
▁mechanism	-13.804
▁meme	-13.804
▁menacingly	-13.804
▁miller	-13.804
▁minnesota	-13.804
▁minnie	-13.804
▁moderately	-13.804
▁mogul	-13.804
▁mold	-13.804
▁monitoring	-13.804
▁monroe	-13.804
▁motocycle	-13.804
▁motorcade	-13.804
▁motorcross	-13.804
▁motorhome	-13.804
▁motoring	-13.804
▁mr	-13.804
▁murdered	-13.804
▁mussels	-13.804
▁myspace	-13.804
▁mystery	-13.804
▁nacks	-13.804
▁nativity	-13.804
▁needing	-13.804
▁netted	-13.804
▁nibble	-13.804
▁nineteen	-13.804
▁nonchalantly	-13.804
▁none	-13.804
▁nosing	-13.804
▁notices	-13.804
▁ny	-13.804
▁nypd	-13.804
▁occupies	-13.804
▁oj	-13.804
▁online	-13.804
▁organizing	-13.804
▁outing	-13.804
▁overcooked	-13.804
▁overtaken	-13.804
▁pakistan	-13.804
▁panes	-13.804
▁panned	-13.804
▁participants	-13.804
▁passersby	-13.804
▁pasties	-13.804
▁pats	-13.804
▁pattered	-13.804
▁pavers	-13.804
▁pearl	-13.804
▁pedaling	-13.804
▁peep	-13.804
▁peg	-13.804
▁pegs	-13.804
▁perked	-13.804
▁pharmacy	-13.804
▁philly	-13.804
▁pierced	-13.804
▁pinking	-13.804
▁placemats	-13.804
▁poached	-13.804
▁poked	-13.804
▁pokemon	-13.804
▁pondering	-13.804
▁poppy	-13.804
▁populate	-13.804
▁possessions	-13.804
▁poultry	-13.804
▁preforms	-13.804
▁preparations	-13.804
▁prevent	-13.804
▁procedure	-13.804
▁production	-13.804
▁propel	-13.804
▁punching	-13.804
▁pursuit	-13.804
▁puzzled	-13.804
▁rad	-13.804
▁raggedy	-13.804
▁rags	-13.804
▁railed	-13.804
▁ran	-13.804
▁rancher	-13.804
▁ranging	-13.804
▁rapped	-13.804
▁rearing	-13.804
▁rears	-13.804
▁recorded	-13.804
▁reduce	-13.804
▁reef	-13.804
▁refigerator	-13.804
▁refuse	-13.804
▁represent	-13.804
▁resident	-13.804
▁restuarant	-13.804
▁retrieves	-13.804
▁reverse	-13.804
▁rhode	-13.804
▁rigged	-13.804
▁rippling	-13.804
▁ronald	-13.804
▁rotini	-13.804
▁router	-13.804
▁routine	-13.804
▁ruby	-13.804
▁salesman	-13.804
▁sanitizer	-13.804
▁sayings	-13.804
▁scatter	-13.804
▁screwed	-13.804
▁scrolling	-13.804
▁scrolls	-13.804
▁secure	-13.804
▁semis	-13.804
▁sensor	-13.804
▁separates	-13.804
▁seuss	-13.804
▁sever	-13.804
▁shacks	-13.804
▁shamrock	-13.804
▁shelters	-13.804
▁shielding	-13.804
▁shock	-13.804
▁shortly	-13.804
▁shouting	-13.804
▁showerhead	-13.804
▁showering	-13.804
▁sideboard	-13.804
▁singapore	-13.804
▁singular	-13.804
▁sisters	-13.804
▁skat	-13.804
▁skatebaord	-13.804
▁skiiing	-13.804
▁skimming	-13.804
▁skimpy	-13.804
▁skinning	-13.804
▁slap	-13.804
▁slathered	-13.804
▁sleeved	-13.804
▁slept	-13.804
▁slew	-13.804
▁slippery	-13.804
▁slogan	-13.804
▁slushy	-13.804
▁smallest	-13.804
▁snaps	-13.804
▁sneaks	-13.804
▁snowed	-13.804
▁snowfall	-13.804
▁snowmen	-13.804
▁snowsuits	-13.804
▁soapy	-13.804
▁soccerball	-13.804
▁sole	-13.804
▁spam	-13.804
▁spandex	-13.804
▁spans	-13.804
▁spelling	-13.804
▁spigot	-13.804
▁spiked	-13.804
▁spoke	-13.804
▁sponsor	-13.804
▁spouting	-13.804
▁sprint	-13.804
▁sprouting	-13.804
▁stacking	-13.804
▁started	-13.804
▁statement	-13.804
▁stature	-13.804
▁statutes	-13.804
▁steady	-13.804
▁stemware	-13.804
▁stethoscope	-13.804
▁steve	-13.804
▁stitch	-13.804
▁storks	-13.804
▁straddles	-13.804
▁strapping	-13.804
▁stray	-13.804
▁streaked	-13.804
▁stree	-13.804
▁streetlamp	-13.804
▁stuffs	-13.804
▁surge	-13.804
▁surveying	-13.804
▁sweating	-13.804
▁swift	-13.804
▁swimwear	-13.804
▁swooping	-13.804
▁sync	-13.804
▁tankless	-13.804
▁tanning	-13.804
▁tap	-13.804
▁taping	-13.804
▁taps	-13.804
▁tart	-13.804
▁tears	-13.804
▁technicians	-13.804
▁teeshirt	-13.804
▁telegraph	-13.804
▁tempting	-13.804
▁thank	-13.804
▁thatch	-13.804
▁themself	-13.804
▁thighs	-13.804
▁thorough	-13.804
▁threes	-13.804
▁toa	-13.804
▁tomatoe	-13.804
▁toolbox	-13.804
▁tough	-13.804
▁trap	-13.804
▁treeline	-13.804
▁trial	-13.804
▁trike	-13.804
▁triumphantly	-13.804
▁true	-13.804
▁tuned	-13.804
▁udders	-13.804
▁umpires	-13.804
▁unattached	-13.804
▁unaware	-13.804
▁unhealthy	-13.804
▁unpainted	-13.804
▁unrecognizable	-13.804
▁useful	-13.804
▁valleys	-13.804
▁vegitables	-13.804
▁ventilation	-13.804
▁vie	-13.804
▁void	-13.804
▁volunteers	-13.804
▁vote	-13.804
▁waterhole	-13.804
▁weighed	-13.804
▁whiile	-13.804
▁whizzes	-13.804
▁wieners	-13.804
▁williams	-13.804
▁windup	-13.804
▁winners	-13.804
▁withered	-13.804
▁woodwork	-13.804
▁workings	-13.804
▁worms	-13.804
▁wrestles	-13.804
▁yams	-13.804
▁yourself	-13.804
▁accepts	-13.9863
▁accompanying	-13.9863
▁acknowledging	-13.9863
▁acrylic	-13.9863
▁addressing	-13.9863
▁advancing	-13.9863
▁agricultural	-13.9863
▁aids	-13.9863
▁airborn	-13.9863
▁alight	-13.9863
▁alternative	-13.9863
▁amoco	-13.9863
▁annual	-13.9863
▁anothers	-13.9863
▁anxiously	-13.9863
▁applauding	-13.9863
▁appreciation	-13.9863
▁arbor	-13.9863
▁arching	-13.9863
▁arctic	-13.9863
▁arent	-13.9863
▁arguing	-13.9863
▁argyle	-13.9863
▁armchairs	-13.9863
▁artifact	-13.9863
▁associated	-13.9863
▁astro	-13.9863
▁astroturf	-13.9863
▁attach	-13.9863
▁attemping	-13.9863
▁attired	-13.9863
▁attractions	-13.9863
▁attractively	-13.9863
▁autism	-13.9863
▁autos	-13.9863
▁awarded	-13.9863
▁backback	-13.9863
▁backflip	-13.9863
▁backhoe	-13.9863
▁backpacking	-13.9863
▁balled	-13.9863
▁ballgame	-13.9863
▁banannas	-13.9863
▁barrack	-13.9863
▁barricaded	-13.9863
▁barry	-13.9863
▁bathmat	-13.9863
▁beachgoers	-13.9863
▁beaming	-13.9863
▁beasts	-13.9863
▁becomes	-13.9863
▁begun	-13.9863
▁believe	-13.9863
▁bellowing	-13.9863
▁benched	-13.9863
▁benchs	-13.9863
▁bewildered	-13.9863
▁biathlon	-13.9863
▁bicycler	-13.9863
▁bilingual	-13.9863
▁billed	-13.9863
▁birdseed	-13.9863
▁bistro	-13.9863
▁bitch	-13.9863
▁bitty	-13.9863
▁blindfold	-13.9863
▁bloomed	-13.9863
▁blossoming	-13.9863
▁blowup	-13.9863
▁bluish	-13.9863
▁bmx	-13.9863
▁boasts	-13.9863
▁boater	-13.9863
▁bologna	-13.9863
▁bolted	-13.9863
▁bounded	-13.9863
▁bowed	-13.9863
▁bp	-13.9863
▁brackets	-13.9863
▁brakes	-13.9863
▁bras	-13.9863
▁breathing	-13.9863
▁brewers	-13.9863
▁brocclie	-13.9863
▁broiled	-13.9863
▁broiler	-13.9863
▁brook	-13.9863
▁brooklyn	-13.9863
▁bros	-13.9863
▁brownstone	-13.9863
▁browses	-13.9863
▁bu	-13.9863
▁bubbling	-13.9863
▁buck	-13.9863
▁buddies	-13.9863
▁buisness	-13.9863
▁bulbous	-13.9863
▁bulky	-13.9863
▁bunkbeds	-13.9863
▁bunnies	-13.9863
▁buries	-13.9863
▁buys	-13.9863
▁cabana	-13.9863
▁calories	-13.9863
▁canals	-13.9863
▁candid	-13.9863
▁canoeing	-13.9863
▁carafe	-13.9863
▁carring	-13.9863
▁carting	-13.9863
▁carve	-13.9863
▁catalog	-13.9863
▁cb	-13.9863
▁cedar	-13.9863
▁cereals	-13.9863
▁cessna	-13.9863
▁charged	-13.9863
▁charlie	-13.9863
▁chars	-13.9863
▁chats	-13.9863
▁chees	-13.9863
▁cheesey	-13.9863
▁cherub	-13.9863
▁chief	-13.9863
▁chilled	-13.9863
▁choking	-13.9863
▁chooses	-13.9863
▁chose	-13.9863
▁chromed	-13.9863
▁circled	-13.9863
▁circling	-13.9863
▁clam	-13.9863
▁clamp	-13.9863
▁clawfoot	-13.9863
▁cleaver	-13.9863
▁climbed	-13.9863
▁climbers	-13.9863
▁closets	-13.9863
▁coasters	-13.9863
▁cocked	-13.9863
▁cocking	-13.9863
▁cocktails	-13.9863
▁coffeemaker	-13.9863
▁coil	-13.9863
▁collaboration	-13.9863
▁collapsed	-13.9863
▁colleague	-13.9863
▁collector	-13.9863
▁cologne	-13.9863
▁colorado	-13.9863
▁commodes	-13.9863
▁commute	-13.9863
▁compare	-13.9863
▁compartmentalized	-13.9863
▁compilation	-13.9863
▁completes	-13.9863
▁component	-13.9863
▁composting	-13.9863
▁computing	-13.9863
▁condensation	-13.9863
▁condos	-13.9863
▁conducting	-13.9863
▁confident	-13.9863
▁congratulate	-13.9863
▁congregated	-13.9863
▁congress	-13.9863
▁contentedly	-13.9863
▁cookout	-13.9863
▁copse	-13.9863
▁cornfield	-13.9863
▁cots	-13.9863
▁coupons	-13.9863
▁courses	-13.9863
▁couscous	-13.9863
▁craning	-13.9863
▁crested	-13.9863
▁crockery	-13.9863
▁crooks	-13.9863
▁crosswalks	-13.9863
▁crossword	-13.9863
▁curiosity	-13.9863
▁dappled	-13.9863
▁decides	-13.9863
▁decline	-13.9863
▁defense	-13.9863
▁delicous	-13.9863
▁deliveries	-13.9863
▁departs	-13.9863
▁des	-13.9863
▁designating	-13.9863
▁detergent	-13.9863
▁deviled	-13.9863
▁dhl	-13.9863
▁dicing	-13.9863
▁didnt	-13.9863
▁dill	-13.9863
▁directors	-13.9863
▁disarray	-13.9863
▁disconnected	-13.9863
▁disguised	-13.9863
▁dished	-13.9863
▁distracted	-13.9863
▁distributing	-13.9863
▁doeuvres	-13.9863
▁domes	-13.9863
▁doo	-13.9863
▁dork	-13.9863
▁dotting	-13.9863
▁dressings	-13.9863
▁dressy	-13.9863
▁drilling	-13.9863
▁dryers	-13.9863
▁du	-13.9863
▁duckling	-13.9863
▁duel	-13.9863
▁dunk	-13.9863
▁dwarfs	-13.9863
▁earing	-13.9863
▁earring	-13.9863
▁eatables	-13.9863
▁eccentric	-13.9863
▁elders	-13.9863
▁emblazoned	-13.9863
▁emerald	-13.9863
▁enclosing	-13.9863
▁ended	-13.9863
▁energetic	-13.9863
▁enjoyment	-13.9863
▁entertainer	-13.9863
▁enthused	-13.9863
▁enthusiastic	-13.9863
▁enticing	-13.9863
▁entourage	-13.9863
▁entre	-13.9863
▁eof	-13.9863
▁error	-13.9863
▁escalators	-13.9863
▁evenly	-13.9863
▁evidently	-13.9863
▁expectantly	-13.9863
▁expertly	-13.9863
▁explain	-13.9863
▁expose	-13.9863
▁expressway	-13.9863
▁faint	-13.9863
▁fairground	-13.9863
▁false	-13.9863
▁fantasy	-13.9863
▁fastball	-13.9863
▁fastening	-13.9863
▁feces	-13.9863
▁federer	-13.9863
▁feels	-13.9863
▁fetching	-13.9863
▁fettuccine	-13.9863
▁fez	-13.9863
▁fiction	-13.9863
▁fiddling	-13.9863
▁figuring	-13.9863
▁fillet	-13.9863
▁financial	-13.9863
▁fingerling	-13.9863
▁flagstone	-13.9863
▁flatware	-13.9863
▁flew	-13.9863
▁flier	-13.9863
▁flotation	-13.9863
▁flusher	-13.9863
▁flute	-13.9863
▁folk	-13.9863
▁footboard	-13.9863
▁footbridge	-13.9863
▁fore	-13.9863
▁formed	-13.9863
▁formica	-13.9863
▁foundation	-13.9863
▁freestanding	-13.9863
▁freightliner	-13.9863
▁fremont	-13.9863
▁fribee	-13.9863
▁fringe	-13.9863
▁frito	-13.9863
▁frittata	-13.9863
▁frizzy	-13.9863
▁functioning	-13.9863
▁gag	-13.9863
▁gallons	-13.9863
▁gamer	-13.9863
▁garbanzo	-13.9863
▁garments	-13.9863
▁garnishing	-13.9863
▁gateway	-13.9863
▁gel	-13.9863
▁ghostly	-13.9863
▁giraffees	-13.9863
▁gladiator	-13.9863
▁glance	-13.9863
▁gleefully	-13.9863
▁glob	-13.9863
▁glued	-13.9863
▁graceful	-13.9863
▁graces	-13.9863
▁graffit	-13.9863
▁grasp	-13.9863
▁graveled	-13.9863
▁gravelly	-13.9863
▁greenwich	-13.9863
▁gren	-13.9863
▁griaffe	-13.9863
▁gril	-13.9863
▁gutting	-13.9863
▁handy	-13.9863
▁haphazardly	-13.9863
▁happens	-13.9863
▁hasnt	-13.9863
▁hating	-13.9863
▁haunches	-13.9863
▁hd	-13.9863
▁headgear	-13.9863
▁headscarf	-13.9863
▁hippopotamus	-13.9863
▁hissing	-13.9863
▁hitching	-13.9863
▁hobby	-13.9863
▁hoe	-13.9863
▁hoisting	-13.9863
▁holidng	-13.9863
▁holly	-13.9863
▁homer	-13.9863
▁horsed	-13.9863
▁hortons	-13.9863
▁hosts	-13.9863
▁hounds	-13.9863
▁hummingbirds	-13.9863
▁hunk	-13.9863
▁hunter	-13.9863
▁hurls	-13.9863
▁ibm	-13.9863
▁idles	-13.9863
▁ill	-13.9863
▁impending	-13.9863
▁imposed	-13.9863
▁impression	-13.9863
▁inbetween	-13.9863
▁index	-13.9863
▁informal	-13.9863
▁insects	-13.9863
▁insert	-13.9863
▁inspection	-13.9863
▁intact	-13.9863
▁intel	-13.9863
▁interaction	-13.9863
▁interviewing	-13.9863
▁intrigued	-13.9863
▁involves	-13.9863
▁irises	-13.9863
▁israeli	-13.9863
▁itch	-13.9863
▁jacked	-13.9863
▁jal	-13.9863
▁jalapeno	-13.9863
▁james	-13.9863
▁joins	-13.9863
▁joust	-13.9863
▁joyfully	-13.9863
▁juggles	-13.9863
▁junky	-13.9863
▁kegs	-13.9863
▁kfc	-13.9863
▁kichen	-13.9863
▁kicked	-13.9863
▁kingfisher	-13.9863
▁kitche	-13.9863
▁kitties	-13.9863
▁kneading	-13.9863
▁kneck	-13.9863
▁kneeled	-13.9863
▁knelling	-13.9863
▁knocking	-13.9863
▁knotted	-13.9863
▁ktichen	-13.9863
▁labs	-13.9863
▁lashes	-13.9863
▁latter	-13.9863
▁leaks	-13.9863
▁leggings	-13.9863
▁lense	-13.9863
▁leroy	-13.9863
▁leveled	-13.9863
▁lever	-13.9863
▁lilac	-13.9863
▁limits	-13.9863
▁liners	-13.9863
▁littel	-13.9863
▁lively	-13.9863
▁lives	-13.9863
▁loitering	-13.9863
▁lollipops	-13.9863
▁loungers	-13.9863
▁lukes	-13.9863
▁luther	-13.9863
▁maine	-13.9863
▁maintain	-13.9863
▁maintains	-13.9863
▁malnourished	-13.9863
▁managing	-13.9863
▁manikin	-13.9863
▁manning	-13.9863
▁marriage	-13.9863
▁marshmallow	-13.9863
▁masts	-13.9863
▁meandering	-13.9863
▁meaning	-13.9863
▁measured	-13.9863
▁medallion	-13.9863
▁meowing	-13.9863
▁mermaid	-13.9863
▁miami	-13.9863
▁midday	-13.9863
▁midway	-13.9863
▁migrating	-13.9863
▁mike	-13.9863
▁mime	-13.9863
▁minced	-13.9863
▁mine	-13.9863
▁minimalistic	-13.9863
▁mode	-13.9863
▁modular	-13.9863
▁molded	-13.9863
▁monica	-13.9863
▁monsters	-13.9863
▁monstrosity	-13.9863
▁moonlight	-13.9863
▁morgan	-13.9863
▁moths	-13.9863
▁motorboats	-13.9863
▁motorcylces	-13.9863
▁moutains	-13.9863
▁mouthful	-13.9863
▁mph	-13.9863
▁mrs	-13.9863
▁mt	-13.9863
▁muslim	-13.9863
▁muzzled	-13.9863
▁naan	-13.9863
▁nations	-13.9863
▁nazi	-13.9863
▁nectarine	-13.9863
▁nectarines	-13.9863
▁negotiate	-13.9863
▁neighbor	-13.9863
▁neighboring	-13.9863
▁nerdy	-13.9863
▁nigh	-13.9863
▁nights	-13.9863
▁noise	-13.9863
▁nostalgic	-13.9863
▁notifying	-13.9863
▁novels	-13.9863
▁nyc	-13.9863
▁oasis	-13.9863
▁offerings	-13.9863
▁oh	-13.9863
▁oils	-13.9863
▁okay	-13.9863
▁ollies	-13.9863
▁omelets	-13.9863
▁onesie	-13.9863
▁ont	-13.9863
▁oozing	-13.9863
▁opportunity	-13.9863
▁option	-13.9863
▁outboard	-13.9863
▁outlets	-13.9863
▁overlaid	-13.9863
▁overnight	-13.9863
▁owned	-13.9863
▁oyster	-13.9863
▁oysters	-13.9863
▁pac	-13.9863
▁paddington	-13.9863
▁paddleboarding	-13.9863
▁paddled	-13.9863
▁pails	-13.9863
▁pained	-13.9863
▁palms	-13.9863
▁parcel	-13.9863
▁participates	-13.9863
▁pasadena	-13.9863
▁pasty	-13.9863
▁patrols	-13.9863
▁payment	-13.9863
▁pays	-13.9863
▁pda	-13.9863
▁pebble	-13.9863
▁peculiar	-13.9863
▁peepee	-13.9863
▁pees	-13.9863
▁penalty	-13.9863
▁peopl	-13.9863
▁peple	-13.9863
▁petal	-13.9863
▁pew	-13.9863
▁phillips	-13.9863
▁picnicking	-13.9863
▁pikachu	-13.9863
▁pillowcases	-13.9863
▁pitbull	-13.9863
▁planet	-13.9863
▁planner	-13.9863
▁plugging	-13.9863
▁plungers	-13.9863
▁poeple	-13.9863
▁pontoons	-13.9863
▁porcupine	-13.9863
▁porridge	-13.9863
▁porta	-13.9863
▁portraying	-13.9863
▁portrays	-13.9863
▁posture	-13.9863
▁potatos	-13.9863
▁potters	-13.9863
▁potties	-13.9863
▁practical	-13.9863
▁prancing	-13.9863
▁prarie	-13.9863
▁preening	-13.9863
▁presence	-13.9863
▁preserves	-13.9863
▁primarily	-13.9863
▁priority	-13.9863
▁propelled	-13.9863
▁pullman	-13.9863
▁pulp	-13.9863
▁puncher	-13.9863
▁pyramids	-13.9863
▁racehorse	-13.9863
▁racehorses	-13.9863
▁raincoats	-13.9863
▁rainforest	-13.9863
▁randys	-13.9863
▁raven	-13.9863
▁ravine	-13.9863
▁readers	-13.9863
▁readied	-13.9863
▁receipts	-13.9863
▁receptacle	-13.9863
▁reclined	-13.9863
▁recovery	-13.9863
▁recycled	-13.9863
▁reel	-13.9863
▁reference	-13.9863
▁remolded	-13.9863
▁representation	-13.9863
▁reptile	-13.9863
▁reserve	-13.9863
▁reserved	-13.9863
▁reservoir	-13.9863
▁residents	-13.9863
▁response	-13.9863
▁restraunt	-13.9863
▁result	-13.9863
▁richmond	-13.9863
▁rickety	-13.9863
▁ridiculous	-13.9863
▁rigs	-13.9863
▁rip	-13.9863
▁ripen	-13.9863
▁roaster	-13.9863
▁rockefeller	-13.9863
▁rockets	-13.9863
▁roger	-13.9863
▁rollerblades	-13.9863
▁rollers	-13.9863
▁romantic	-13.9863
▁roomful	-13.9863
▁roosts	-13.9863
▁rotted	-13.9863
▁rover	-13.9863
▁rowed	-13.9863
▁ruffle	-13.9863
▁rulers	-13.9863
▁rummaging	-13.9863
▁rump	-13.9863
▁saab	-13.9863
▁sac	-13.9863
▁sacks	-13.9863
▁sailer	-13.9863
▁sanitary	-13.9863
▁sanitizers	-13.9863
▁sanwich	-13.9863
▁sas	-13.9863
▁savory	-13.9863
▁scaffold	-13.9863
▁schoolhouse	-13.9863
▁scotland	-13.9863
▁scott	-13.9863
▁scrambles	-13.9863
▁scream	-13.9863
▁screenshot	-13.9863
▁scribbled	-13.9863
▁scrubbing	-13.9863
▁scrunched	-13.9863
▁seas	-13.9863
▁seawall	-13.9863
▁seconds	-13.9863
▁seductively	-13.9863
▁seeking	-13.9863
▁select	-13.9863
▁sellers	-13.9863
▁seniors	-13.9863
▁servicemen	-13.9863
▁severed	-13.9863
▁sewn	-13.9863
▁shaven	-13.9863
▁shedding	-13.9863
▁sheds	-13.9863
▁sheriff	-13.9863
▁sheriffs	-13.9863
▁shingled	-13.9863
▁shoeless	-13.9863
▁shopper	-13.9863
▁shortcake	-13.9863
▁sidecars	-13.9863
▁sights	-13.9863
▁signifying	-13.9863
▁sititng	-13.9863
▁sittingon	-13.9863
▁sittting	-13.9863
▁sixteen	-13.9863
▁skied	-13.9863
▁skiff	-13.9863
▁skillets	-13.9863
▁skyteam	-13.9863
▁skyward	-13.9863
▁slit	-13.9863
▁slows	-13.9863
▁smack	-13.9863
▁smash	-13.9863
▁smoker	-13.9863
▁snarling	-13.9863
▁sneak	-13.9863
▁solemn	-13.9863
▁solider	-13.9863
▁somber	-13.9863
▁southeast	-13.9863
▁souvenirs	-13.9863
▁spaced	-13.9863
▁spaceship	-13.9863
▁sparkles	-13.9863
▁sparrows	-13.9863
▁speared	-13.9863
▁specialized	-13.9863
▁speedometer	-13.9863
▁spin	-13.9863
▁spitting	-13.9863
▁splattered	-13.9863
▁sponsored	-13.9863
▁spouts	-13.9863
▁sprig	-13.9863
▁sprinklers	-13.9863
▁stab	-13.9863
▁stabbing	-13.9863
▁stading	-13.9863
▁staked	-13.9863
▁stapled	-13.9863
▁status	-13.9863
▁stealing	-13.9863
▁stealth	-13.9863
▁stevens	-13.9863
▁stirrer	-13.9863
▁stnading	-13.9863
▁stole	-13.9863
▁stooges	-13.9863
▁stoops	-13.9863
▁storing	-13.9863
▁strands	-13.9863
▁strategically	-13.9863
▁strength	-13.9863
▁stumps	-13.9863
▁suburb	-13.9863
▁suckles	-13.9863
▁suggesting	-13.9863
▁sunk	-13.9863
▁sup	-13.9863
▁supple	-13.9863
▁supplied	-13.9863
▁supposed	-13.9863
▁survey	-13.9863
▁surveys	-13.9863
▁swarm	-13.9863
▁swat	-13.9863
▁sweatpants	-13.9863
▁swell	-13.9863
▁swept	-13.9863
▁swerving	-13.9863
▁swiping	-13.9863
▁swirling	-13.9863
▁swirls	-13.9863
▁switches	-13.9863
▁tablecloths	-13.9863
▁tabled	-13.9863
▁taillights	-13.9863
▁tallest	-13.9863
▁tampa	-13.9863
▁tanding	-13.9863
▁tarmack	-13.9863
▁tax	-13.9863
▁taxiway	-13.9863
▁technical	-13.9863
▁teething	-13.9863
▁teresa	-13.9863
▁termite	-13.9863
▁tested	-13.9863
▁themes	-13.9863
▁thrift	-13.9863
▁throat	-13.9863
▁tiaras	-13.9863
▁tightrope	-13.9863
▁ting	-13.9863
▁tinsel	-13.9863
▁tog	-13.9863
▁tolet	-13.9863
▁tolit	-13.9863
▁tom	-13.9863
▁tongues	-13.9863
▁toppled	-13.9863
▁toronto	-13.9863
▁torsos	-13.9863
▁total	-13.9863
▁totes	-13.9863
▁townhouses	-13.9863
▁trainyard	-13.9863
▁trashed	-13.9863
▁traverses	-13.9863
▁trendy	-13.9863
▁treys	-13.9863
▁trombone	-13.9863
▁troop	-13.9863
▁trundle	-13.9863
▁trust	-13.9863
▁tubing	-13.9863
▁tulip	-13.9863
▁tumble	-13.9863
▁tun	-13.9863
▁turret	-13.9863
▁turrets	-13.9863
▁tvv	-13.9863
▁tweezers	-13.9863
▁twinkies	-13.9863
▁twitter	-13.9863
▁uhaul	-13.9863
▁umbilical	-13.9863
▁umping	-13.9863
▁unbrellas	-13.9863
▁unclear	-13.9863
▁uncommon	-13.9863
▁underbelly	-13.9863
▁understand	-13.9863
▁undressed	-13.9863
▁uneven	-13.9863
▁unmanned	-13.9863
▁unpacking	-13.9863
▁utilitarian	-13.9863
▁utilities	-13.9863
▁utilizes	-13.9863
▁variation	-13.9863
▁variegated	-13.9863
▁vents	-13.9863
▁vert	-13.9863
▁vet	-13.9863
▁veteran	-13.9863
▁viewers	-13.9863
▁villa	-13.9863
▁villagers	-13.9863
▁virginia	-13.9863
▁visited	-13.9863
▁visual	-13.9863
▁vitamins	-13.9863
▁vulture	-13.9863
▁wafer	-13.9863
▁waited	-13.9863
▁wallets	-13.9863
▁walsk	-13.9863
▁warmed	-13.9863
▁warplane	-13.9863
▁washers	-13.9863
▁waterboard	-13.9863
▁watered	-13.9863
▁wayland	-13.9863
▁weapon	-13.9863
▁weenies	-13.9863
▁wetland	-13.9863
▁whle	-13.9863
▁whtie	-13.9863
▁wielding	-13.9863
▁wiffle	-13.9863
▁wiith	-13.9863
▁wildflower	-13.9863
▁william	-13.9863
▁wilson	-13.9863
▁windsocks	-13.9863
▁winking	-13.9863
▁winks	-13.9863
▁woma	-13.9863
▁wonders	-13.9863
▁woodsy	-13.9863
▁workout	-13.9863
▁worshiping	-13.9863
▁wrenches	-13.9863
▁wrestlers	-13.9863
▁writting	-13.9863
▁wwii	-13.9863
▁yorkie	-13.9863
▁zippers	-13.9863
▁zips	-13.9863
▁zookeeper	-13.9863
▁abed	-14.2094
▁abilities	-14.2094
▁abuilding	-14.2094
▁ac	-14.2094
▁accordian	-14.2094
▁ace	-14.2094
▁acrobat	-14.2094
▁actor	-14.2094
▁actress	-14.2094
▁acts	-14.2094
▁advising	-14.2094
▁aeroplanes	-14.2094
▁airbus	-14.2094
▁airway	-14.2094
▁alerts	-14.2094
▁alliance	-14.2094
▁alligators	-14.2094
▁alright	-14.2094
▁although	-14.2094
▁altogether	-14.2094
▁aluminium	-14.2094
▁aman	-14.2094
▁amd	-14.2094
▁amphibious	-14.2094
▁amplifier	-14.2094
▁announces	-14.2094
▁antennas	-14.2094
▁anticipates	-14.2094
▁apiece	-14.2094
▁apparent	-14.2094
▁approximately	-14.2094
▁areal	-14.2094
▁ariel	-14.2094
▁asain	-14.2094
▁asians	-14.2094
▁assemble	-14.2094
▁assembles	-14.2094
▁assignment	-14.2094
▁astronomical	-14.2094
▁atable	-14.2094
▁atlas	-14.2094
▁attract	-14.2094
▁attracted	-14.2094
▁avacado	-14.2094
▁avery	-14.2094
▁aviator	-14.2094
▁aware	-14.2094
▁awe	-14.2094
▁azure	-14.2094
▁backboard	-14.2094
▁backcountry	-14.2094
▁backless	-14.2094
▁backpacker	-14.2094
▁backyards	-14.2094
▁badger	-14.2094
▁baggie	-14.2094
▁baggies	-14.2094
▁bagpipes	-14.2094
▁bakground	-14.2094
▁ballet	-14.2094
▁ballplayer	-14.2094
▁baloons	-14.2094
▁banans	-14.2094
▁bang	-14.2094
▁barbecuing	-14.2094
▁bared	-14.2094
▁bashed	-14.2094
▁bask	-14.2094
▁basset	-14.2094
▁bater	-14.2094
▁batroom	-14.2094
▁beaches	-14.2094
▁beards	-14.2094
▁beater	-14.2094
▁beck	-14.2094
▁bedsheets	-14.2094
▁bedtime	-14.2094
▁beg	-14.2094
▁behinds	-14.2094
▁belgium	-14.2094
▁bellied	-14.2094
▁bellow	-14.2094
▁bernard	-14.2094
▁berth	-14.2094
▁bicyclers	-14.2094
▁bindings	-14.2094
▁birdcages	-14.2094
▁bitter	-14.2094
▁blackbird	-14.2094
▁blob	-14.2094
▁blowdrying	-14.2094
▁bluetooth	-14.2094
▁blustery	-14.2094
▁boa	-14.2094
▁boast	-14.2094
▁boatyard	-14.2094
▁bock	-14.2094
▁bodacious	-14.2094
▁bohemian	-14.2094
▁boiler	-14.2094
▁bolt	-14.2094
▁boneless	-14.2094
▁bording	-14.2094
▁boss	-14.2094
▁boxy	-14.2094
▁boyfriend	-14.2094
▁bracket	-14.2094
▁brands	-14.2094
▁briefly	-14.2094
▁brighten	-14.2094
▁brilliantly	-14.2094
▁brinks	-14.2094
▁broadcast	-14.2094
▁bronx	-14.2094
▁bt	-14.2094
▁bullhorn	-14.2094
▁bungee	-14.2094
▁burried	-14.2094
▁burst	-14.2094
▁butchers	-14.2094
▁butternut	-14.2094
▁buttoned	-14.2094
▁buzz	-14.2094
▁buzzards	-14.2094
▁bye	-14.2094
▁cabanas	-14.2094
▁camcorder	-14.2094
▁campbell	-14.2094
▁candied	-14.2094
▁candlelit	-14.2094
▁canopied	-14.2094
▁capabilities	-14.2094
▁caped	-14.2094
▁capers	-14.2094
▁carelessly	-14.2094
▁carolina	-14.2094
▁carryout	-14.2094
▁cascading	-14.2094
▁casks	-14.2094
▁cassette	-14.2094
▁castro	-14.2094
▁cathay	-14.2094
▁cavalry	-14.2094
▁cellophane	-14.2094
▁cemented	-14.2094
▁certificate	-14.2094
▁chaos	-14.2094
▁charlottesville	-14.2094
▁chateau	-14.2094
▁chemical	-14.2094
▁cherubs	-14.2094
